{
  "version": "1.0",
  "truncation": null,
  "padding": null,
  "added_tokens": [
    {
      "id": 0,
      "content": "[UNK]",
      "single_word": false,
      "lstrip": false,
      "rstrip": false,
      "normalized": false,
      "special": true
    },
    {
      "id": 1,
      "content": "[PAD]",
      "single_word": false,
      "lstrip": false,
      "rstrip": false,
      "normalized": false,
      "special": true
    }
  ],
  "normalizer": null,
  "pre_tokenizer": {
    "type": "ByteLevel",
    "add_prefix_space": false,
    "trim_offsets": true,
    "use_regex": true
  },
  "post_processor": null,
  "decoder": {
    "type": "ByteLevel",
    "add_prefix_space": true,
    "trim_offsets": true,
    "use_regex": true
  },
  "model": {
    "type": "BPE",
    "dropout": null,
    "unk_token": "[UNK]",
    "continuing_subword_prefix": null,
    "end_of_word_suffix": null,
    "fuse_unk": false,
    "byte_fallback": false,
    "ignore_merges": false,
    "vocab": {
      "[UNK]": 0,
      "[PAD]": 1,
      "!": 2,
      "\"": 3,
      "&": 4,
      "'": 5,
      "(": 6,
      ")": 7,
      ",": 8,
      "-": 9,
      ".": 10,
      "0": 11,
      "1": 12,
      "2": 13,
      "3": 14,
      "4": 15,
      "5": 16,
      "6": 17,
      "7": 18,
      "8": 19,
      "9": 20,
      ":": 21,
      ";": 22,
      "<": 23,
      ">": 24,
      "?": 25,
      "A": 26,
      "B": 27,
      "C": 28,
      "D": 29,
      "E": 30,
      "F": 31,
      "G": 32,
      "H": 33,
      "I": 34,
      "J": 35,
      "K": 36,
      "L": 37,
      "M": 38,
      "N": 39,
      "O": 40,
      "P": 41,
      "Q": 42,
      "R": 43,
      "S": 44,
      "T": 45,
      "U": 46,
      "V": 47,
      "W": 48,
      "X": 49,
      "Y": 50,
      "Z": 51,
      "[": 52,
      "]": 53,
      "_": 54,
      "`": 55,
      "a": 56,
      "b": 57,
      "c": 58,
      "d": 59,
      "e": 60,
      "f": 61,
      "g": 62,
      "h": 63,
      "i": 64,
      "j": 65,
      "k": 66,
      "l": 67,
      "m": 68,
      "n": 69,
      "o": 70,
      "p": 71,
      "q": 72,
      "r": 73,
      "s": 74,
      "t": 75,
      "u": 76,
      "v": 77,
      "w": 78,
      "x": 79,
      "y": 80,
      "z": 81,
      "|": 82,
      "}": 83,
      "Ċ": 84,
      "č": 85,
      "Ġ": 86,
      "ĠĠ": 87,
      "čĊ": 88,
      "Ġt": 89,
      "he": 90,
      "ĠĠĠ": 91,
      "Ġa": 92,
      "ĠĠĠĠ": 93,
      "ou": 94,
      "Ġs": 95,
      "in": 96,
      "Ġm": 97,
      "Ġw": 98,
      "re": 99,
      "ha": 100,
      "nd": 101,
      "Ġthe": 102,
      "Ġb": 103,
      "is": 104,
      "er": 105,
      "or": 106,
      "ĠI": 107,
      "Ġf": 108,
      "ll": 109,
      "Ġo": 110,
      "it": 111,
      "ĠĠĠĠĠĠĠĠ": 112,
      "Ġd": 113,
      "Ġc": 114,
      "es": 115,
      "Ġl": 116,
      "on": 117,
      "Ġy": 118,
      "Ġn": 119,
      "ĠT": 120,
      "Ġth": 121,
      "en": 122,
      "ar": 123,
      "Ġh": 124,
      "ĠA": 125,
      "Ġyou": 126,
      "Ġp": 127,
      "Ġto": 128,
      "Ġand": 129,
      "hat": 130,
      "Ġof": 131,
      "Ġhe": 132,
      "ot": 133,
      "an": 134,
      "ve": 135,
      "ing": 136,
      "ow": 137,
      "om": 138,
      "Ġg": 139,
      "st": 140,
      "ĠW": 141,
      "at": 142,
      "Ġbe": 143,
      "Ġin": 144,
      "se": 145,
      "ĠS": 146,
      "ce": 147,
      "Ġha": 148,
      "Ġmy": 149,
      "et": 150,
      "ĠB": 151,
      "ĠC": 152,
      "le": 153,
      "ay": 154,
      "ld": 155,
      "ĠH": 156,
      "ut": 157,
      "Ġme": 158,
      "ĠM": 159,
      "ith": 160,
      "ir": 161,
      "im": 162,
      "ĠO": 163,
      "'d": 164,
      "ch": 165,
      "Ġnot": 166,
      "ed": 167,
      "Ġis": 168,
      "gh": 169,
      "'s": 170,
      "ill": 171,
      "Ġthat": 172,
      "Ġe": 173,
      "Ġfor": 174,
      "oo": 175,
      "ĠF": 176,
      "ĠP": 177,
      "ĠĠĠĠĠĠĠĠĠĠĠĠĠĠĠĠ": 178,
      "ke": 179,
      "ĠE": 180,
      "our": 181,
      "ĠAnd": 182,
      "Ġu": 183,
      "Ġwith": 184,
      "Ġwe": 185,
      "ĠL": 186,
      "ent": 187,
      "Ġit": 188,
      "ad": 189,
      "as": 190,
      "Ġyour": 191,
      "id": 192,
      "ĠThe": 193,
      "al": 194,
      "ter": 195,
      "her": 196,
      "Ġhis": 197,
      "ER": 198,
      "Ġst": 199,
      "ri": 200,
      "ĠG": 201,
      "Ġthou": 202,
      "ra": 203,
      "ĠD": 204,
      "Ġhim": 205,
      "ght": 206,
      "Ġthis": 207,
      "Ġre": 208,
      "Ġhave": 209,
      "ome": 210,
      "ord": 211,
      "ly": 212,
      "Ġso": 213,
      "ur": 214,
      "Ġon": 215,
      "Ġli": 216,
      "Ġas": 217,
      "Ġk": 218,
      "US": 219,
      "ver": 220,
      "EN": 221,
      "ĠN": 222,
      "ore": 223,
      "ould": 224,
      "IN": 225,
      "Ġde": 226,
      "ain": 227,
      "Ġdo": 228,
      "Ġwill": 229,
      "ro": 230,
      "am": 231,
      "ood": 232,
      "us": 233,
      "hi": 234,
      "ck": 235,
      "ES": 236,
      "Ġsha": 237,
      "ON": 238,
      "Ġse": 239,
      "ion": 240,
      "AR": 241,
      "ess": 242,
      "est": 243,
      "ĠY": 244,
      "AN": 245,
      "ea": 246,
      "Ġher": 247,
      "Ġan": 248,
      "Ġthy": 249,
      "Ġ'": 250,
      "ĠR": 251,
      "Ġlo": 252,
      "Ġno": 253,
      "Ġbut": 254,
      "OR": 255,
      "nt": 256,
      "ge": 257,
      "Ġsu": 258,
      "and": 259,
      "ĠK": 260,
      "Ġall": 261,
      "ĠTh": 262,
      "ru": 263,
      "il": 264,
      "th": 265,
      "ake": 266,
      "if": 267,
      "ear": 268,
      "Ġsp": 269,
      "ell": 270,
      "Ġfa": 271,
      "ĠTo": 272,
      "ct": 273,
      "Ġkn": 274,
      "Ġshall": 275,
      "Ġthee": 276,
      "Ġv": 277,
      "Ġare": 278,
      "ight": 279,
      "han": 280,
      "Ġsh": 281,
      "rom": 282,
      "ĠThat": 283,
      "ST": 284,
      "ast": 285,
      "Ġby": 286,
      "Ġour": 287,
      "ard": 288,
      "Ġman": 289,
      "ho": 290,
      "Ġne": 291,
      "art": 292,
      "Ġat": 293,
      "end": 294,
      "ine": 295,
      "Ġam": 296,
      "ant": 297,
      "ĠBut": 298,
      "ous": 299,
      "ĠHe": 300,
      "Ġup": 301,
      "Ġcom": 302,
      "ĠWhat": 303,
      "Ġmu": 304,
      "LL": 305,
      "Ġlord": 306,
      "out": 307,
      "sel": 308,
      "Ġgood": 309,
      "Ġcon": 310,
      "'ll": 311,
      "qu": 312,
      "one": 313,
      "ie": 314,
      "res": 315,
      "Ġwhe": 316,
      "ul": 317,
      "ind": 318,
      "Ġgo": 319,
      "ive": 320,
      "hich": 321,
      "em": 322,
      "Ġwhat": 323,
      "Ġfrom": 324,
      "ong": 325,
      "ble": 326,
      "ry": 327,
      "ers": 328,
      "ven": 329,
      "Ġknow": 330,
      "nter": 331,
      "Ġthem": 332,
      "Ġshe": 333,
      "Ġlove": 334,
      "row": 335,
      "Ġwould": 336,
      "Ġsw": 337,
      "au": 338,
      "Ġwas": 339,
      "IO": 340,
      "Ġbl": 341,
      "oth": 342,
      "TH": 343,
      "Ġmore": 344,
      "IC": 345,
      "ic": 346,
      "AL": 347,
      "Ġ[": 348,
      "Ġpr": 349,
      "Ġcan": 350,
      "Ġthere": 351,
      "ath": 352,
      "Ġhat": 353,
      "ĠFor": 354,
      "pp": 355,
      "Ġnow": 356,
      "ĠĠĠĠĠ": 357,
      "ĠEx": 358,
      "Ġtheir": 359,
      "all": 360,
      "ep": 361,
      "ost": 362,
      "Ġor": 363,
      "Ġthey": 364,
      "fe": 365,
      "ol": 366,
      "Ġwor": 367,
      "Ġthan": 368,
      "UC": 369,
      "Ġar": 370,
      "Ġsir": 371,
      "self": 372,
      "ure": 373,
      "ate": 374,
      "Ġif": 375,
      "Ġsay": 376,
      "Ġus": 377,
      "Ġlet": 378,
      "ink": 379,
      "ING": 380,
      "ue": 381,
      "Ġhere": 382,
      "ish": 383,
      "ĠWhe": 384,
      "RO": 385,
      "ĠJ": 386,
      "LE": 387,
      "ng": 388,
      "IA": 389,
      "ĠMy": 390,
      "el": 391,
      "ĠYou": 392,
      "reat": 393,
      "Ġr": 394,
      "other": 395,
      "hy": 396,
      "ĠAN": 397,
      "Ġwell": 398,
      "ĠIf": 399,
      "Ġhath": 400,
      "um": 401,
      "ED": 402,
      "OL": 403,
      "ves": 404,
      "are": 405,
      "ĠCO": 406,
      "ather": 407,
      "fore": 408,
      "ook": 409,
      "od": 410,
      "Ġpl": 411,
      "ak": 412,
      "Ġsee": 413,
      "ame": 414,
      "Ġthen": 415,
      "IUS": 416,
      "ig": 417,
      "Ġone": 418,
      "ort": 419,
      "Ġbr": 420,
      "Ġj": 421,
      "Ġlike": 422,
      "Ġcome": 423,
      "ound": 424,
      "ĠV": 425,
      "Ġshould": 426,
      "Ġdid": 427,
      "ĠOF": 428,
      "Ġun": 429,
      "Ġmay": 430,
      "ĠAs": 431,
      "Ġmad": 432,
      "ance": 433,
      "Ġmake": 434,
      "gain": 435,
      "Ġdis": 436,
      "Ġho": 437,
      "Ġout": 438,
      "ĠĠĠĠĠĠĠĠĠĠĠĠĠĠĠĠĠĠĠĠĠĠĠĠĠĠĠĠĠĠĠĠ": 439,
      "eak": 440,
      "Ġupon": 441,
      "ide": 442,
      "LO": 443,
      "ice": 444,
      "Ġwhich": 445,
      "Ġsa": 446,
      "Ġmust": 447,
      "Ġwere": 448,
      "un": 449,
      "very": 450,
      "UT": 451,
      "ĠEnter": 452,
      "ĠĠĠĠĠĠĠĠĠĠĠĠ": 453,
      "Ġhad": 454,
      "Ġtru": 455,
      "ĠKING": 456,
      "pe": 457,
      "Ġqu": 458,
      "ity": 459,
      "Ġtoo": 460,
      "ime": 461,
      "Ġpro": 462,
      "ĠKing": 463,
      "pt": 464,
      "IR": 465,
      "ence": 466,
      "ther": 467,
      "Ġheart": 468,
      "unt": 469,
      "orn": 470,
      "Ġwhen": 471,
      "Ġhand": 472,
      "Ġsuch": 473,
      "ies": 474,
      "ĠBe": 475,
      "Ġpo": 476,
      "Ġhon": 477,
      "Ġen": 478,
      "ĠIn": 479,
      "Ġex": 480,
      "IB": 481,
      "Ġagain": 482,
      "ĠWhy": 483,
      "ĠHow": 484,
      "ERS": 485,
      "Ġal": 486,
      "ĠThou": 487,
      "IS": 488,
      "ness": 489,
      "Ġspeak": 490,
      "ond": 491,
      "ave": 492,
      "Ġey": 493,
      "ĠWith": 494,
      "ĠThis": 495,
      "wn": 496,
      "ff": 497,
      "ince": 498,
      "Ġyet": 499,
      "TR": 500,
      "ĠSo": 501,
      "ise": 502,
      "Ġoff": 503,
      "ose": 504,
      "ass": 505,
      "ick": 506,
      "Ġsome": 507,
      "ire": 508,
      "Ġwho": 509,
      "ist": 510,
      "ĠNo": 511,
      "ady": 512,
      "ĠWe": 513,
      "AC": 514,
      "Ġthese": 515,
      "Ġfri": 516,
      "Ġthink": 517,
      "Ġfather": 518,
      "ci": 519,
      "Ġfo": 520,
      "Ġmine": 521,
      "ARD": 522,
      "eet": 523,
      "urn": 524,
      "'t": 525,
      "ack": 526,
      "Ġab": 527,
      "oy": 528,
      "ings": 529,
      "Ġgreat": 530,
      "own": 531,
      "ĠQ": 532,
      "age": 533,
      "Ġhow": 534,
      "eunt": 535,
      "ĠU": 536,
      "ĠIt": 537,
      "ĠĠĠĠĠĠĠĠĠĠĠĠĠĠĠĠĠĠĠĠ": 538,
      "Ġhea": 539,
      "Ġgive": 540,
      "Ġtime": 541,
      "Ġcha": 542,
      "Ġtake": 543,
      "ĠOf": 544,
      "Ġmuch": 545,
      "ĠPr": 546,
      "Ġtw": 547,
      "Ġmost": 548,
      "ĠThere": 549,
      "way": 550,
      "ĠIs": 551,
      "Ġfriend": 552,
      "ag": 553,
      "ĠExeunt": 554,
      "ation": 555,
      "aster": 556,
      "entle": 557,
      "ful": 558,
      "Ġtell": 559,
      "ĠWho": 560,
      "Ġmar": 561,
      "Ġday": 562,
      "ĠCome": 563,
      "ĠLet": 564,
      "Ġbet": 565,
      "Ġwhere": 566,
      "Ġbre": 567,
      "INE": 568,
      "Ġro": 569,
      "ESS": 570,
      "IST": 571,
      "Ġfl": 572,
      "ree": 573,
      "Ġgra": 574,
      "AD": 575,
      "Ġhear": 576,
      "Ġle": 577,
      "ert": 578,
      "os": 579,
      "ap": 580,
      "Ġdes": 581,
      "Ġmen": 582,
      "ĠTH": 583,
      "Ġlea": 584,
      "ust": 585,
      "Ġlook": 586,
      "Ġword": 587,
      "Ġnever": 588,
      "Ġart": 589,
      "EC": 590,
      "Ġpart": 591,
      "ĠWhich": 592,
      "Ġblood": 593,
      "io": 594,
      "ign": 595,
      "ull": 596,
      "Ġother": 597,
      "ress": 598,
      "IT": 599,
      "ither": 600,
      "ĠFOR": 601,
      "Ġdeath": 602,
      "UR": 603,
      "ĠWhen": 604,
      "Ġlife": 605,
      "li": 606,
      "ough": 607,
      "Ġwr": 608,
      "ool": 609,
      "ĠWhere": 610,
      "Ġson": 611,
      "ount": 612,
      "Ġear": 613,
      "Ġser": 614,
      "ĠPRO": 615,
      "Ġgentle": 616,
      "Ġint": 617,
      "ase": 618,
      "ment": 619,
      "ĠExit": 620,
      "ĠOR": 621,
      "igh": 622,
      "Ġtr": 623,
      "oul": 624,
      "ĠGod": 625,
      "Ġsc": 626,
      "Ġfear": 627,
      "Ġfair": 628,
      "Ġri": 629,
      "ĠBy": 630,
      "EL": 631,
      "Ġdoth": 632,
      "ĠSir": 633,
      "Ġple": 634,
      "ANT": 635,
      "ION": 636,
      "tle": 637,
      "EM": 638,
      "Ġany": 639,
      "ace": 640,
      "ĠCA": 641,
      "ward": 642,
      "Ġcomm": 643,
      "Ġown": 644,
      "ite": 645,
      "Ġwar": 646,
      "ĠNow": 647,
      "Ġhonour": 648,
      "tis": 649,
      "ĠAR": 650,
      "FF": 651,
      "Ġcl": 652,
      "not": 653,
      "Ġad": 654,
      "ans": 655,
      "ces": 656,
      "hing": 657,
      "Ġper": 658,
      "Ġsweet": 659,
      "ENE": 660,
      "eed": 661,
      "ĠOr": 662,
      "Ġra": 663,
      "Ġvery": 664,
      "AND": 665,
      "Ġmade": 666,
      "Ġtrue": 667,
      "ELL": 668,
      "Ġheaven": 669,
      "ee": 670,
      "PH": 671,
      "Ġcall": 672,
      "IAN": 673,
      "ĠMar": 674,
      "nce": 675,
      "Ġnight": 676,
      "ud": 677,
      "rown": 678,
      "land": 679,
      "GE": 680,
      "TE": 681,
      "ft": 682,
      "Ġco": 683,
      "ĠDo": 684,
      "Ġwh": 685,
      "Ġapp": 686,
      "ĠLord": 687,
      "OW": 688,
      "Ġcannot": 689,
      "Ġke": 690,
      "llow": 691,
      "Ġhast": 692,
      "ction": 693,
      "Ġaf": 694,
      "augh": 695,
      "nder": 696,
      "KE": 697,
      "Ġpre": 698,
      "able": 699,
      "Ġwit": 700,
      "Ġworld": 701,
      "ISTR": 702,
      "AT": 703,
      "ouse": 704,
      "ber": 705,
      "Ġpray": 706,
      "ĠAND": 707,
      "per": 708,
      "ĠThen": 709,
      "Ġeyes": 710,
      "ving": 711,
      "AB": 712,
      "Ġbeen": 713,
      "Ġstr": 714,
      "ove": 715,
      "ĠHere": 716,
      "CE": 717,
      "Ġaway": 718,
      "sw": 719,
      "Ġcour": 720,
      "les": 721,
      "man": 722,
      "Ġbrother": 723,
      "ID": 724,
      "cc": 725,
      "ĠAy": 726,
      "Ġim": 727,
      "ock": 728,
      "Ġbear": 729,
      "TER": 730,
      "ĠYour": 731,
      "Ġcomp": 732,
      "Ġdown": 733,
      "orrow": 734,
      "Ġdone": 735,
      "ĠSt": 736,
      "CENE": 737,
      "Ġname": 738,
      "ĠBY": 739,
      "ĠCOP": 740,
      "IBUT": 741,
      "ISTRIBUT": 742,
      "che": 743,
      "Ġhead": 744,
      "red": 745,
      "Ġru": 746,
      "Ġnor": 747,
      "HA": 748,
      "Tis": 749,
      "Ġwom": 750,
      "Ġway": 751,
      "Ġstand": 752,
      "Ġla": 753,
      "Ġtwo": 754,
      "ife": 755,
      "IM": 756,
      "ĠDU": 757,
      "aint": 758,
      "Ġever": 759,
      "Ġold": 760,
      "Ġbefore": 761,
      "ORD": 762,
      "Ġcont": 763,
      "ss": 764,
      "ĠSha": 765,
      "Ġmight": 766,
      "Enter": 767,
      "ĠCa": 768,
      "IRST": 769,
      "Ġpres": 770,
      "ĠFIRST": 771,
      "Ġlady": 772,
      "Ġthought": 773,
      "Ġleave": 774,
      "IL": 775,
      "Ġfool": 776,
      "Ġnoble": 777,
      "Ġnew": 778,
      "Ġarm": 779,
      "Ġsl": 780,
      "ĠIS": 781,
      "uke": 782,
      "Ġthus": 783,
      "Ġ(": 784,
      "UCH": 785,
      "ks": 786,
      "ĠĠĠĠĠĠĠĠĠĠĠĠĠĠĠĠĠĠĠĠĠĠĠĠ": 787,
      "ĠRe": 788,
      "Ġcomes": 789,
      "iss": 790,
      "Ġcould": 791,
      "Ġbeg": 792,
      "Ġrem": 793,
      "Ġlong": 794,
      "ĠWell": 795,
      "ENT": 796,
      "ef": 797,
      "ps": 798,
      "ason": 799,
      "ause": 800,
      "OM": 801,
      "Ġbetter": 802,
      "ĠAn": 803,
      "ĠGo": 804,
      "less": 805,
      "ILL": 806,
      "Ġpur": 807,
      "atch": 808,
      "irst": 809,
      "ears": 810,
      "Ġsoul": 811,
      "aughter": 812,
      "Ġhar": 813,
      "ĠWill": 814,
      "ĠQU": 815,
      "Ġshow": 816,
      "ach": 817,
      "ple": 818,
      "Ġhouse": 819,
      "atter": 820,
      "Ġpoor": 821,
      "Ġfind": 822,
      "ang": 823,
      "ERV": 824,
      "Ġinto": 825,
      "we": 826,
      "Ġdead": 827,
      "eace": 828,
      "ew": 829,
      "ors": 830,
      "SS": 831,
      "ĠGood": 832,
      "Ġbest": 833,
      "ĠAl": 834,
      "ĠDuke": 835,
      "Ġbeing": 836,
      "ious": 837,
      "ia": 838,
      "Ġnothing": 839,
      "Ġkeep": 840,
      "Ġrep": 841,
      "ought": 842,
      "Ġmer": 843,
      "Ġking": 844,
      "ower": 845,
      "Ġend": 846,
      "ĠCl": 847,
      "ĠShe": 848,
      "Ġmany": 849,
      "Ġent": 850,
      "ĠHis": 851,
      "ĠCOM": 852,
      "come": 853,
      "ĠDUKE": 854,
      "Ġboth": 855,
      "ĠANT": 856,
      "Ġserv": 857,
      "cy": 858,
      "ty": 859,
      "ĠCH": 860,
      "Ġlive": 861,
      "ius": 862,
      "tun": 863,
      "nto": 864,
      "Ġgl": 865,
      "ĠNay": 866,
      "Ġbra": 867,
      "ĠThan": 868,
      "Ġevery": 869,
      "ĠThey": 870,
      "akes": 871,
      "MER": 872,
      "ĠNor": 873,
      "Ġfell": 874,
      "Ġmyself": 875,
      "ĠMAC": 876,
      "Ġput": 877,
      "ds": 878,
      "ied": 879,
      "Ġmaster": 880,
      "rance": 881,
      "ĠOTH": 882,
      "Ġstill": 883,
      "OND": 884,
      "Ġfriends": 885,
      "lf": 886,
      "ian": 887,
      "Ġind": 888,
      "eth": 889,
      "uck": 890,
      "YR": 891,
      "ier": 892,
      "Ġsm": 893,
      "ĠEng": 894,
      "Ġwife": 895,
      "ins": 896,
      "hip": 897,
      "ĠNot": 898,
      "BER": 899,
      "ittle": 900,
      "old": 901,
      "Ġfollow": 902,
      "Ġtong": 903,
      "ĠMAR": 904,
      "PE": 905,
      "me": 906,
      "mp": 907,
      "vil": 908,
      "Ġset": 909,
      "Ġlie": 910,
      "ESTER": 911,
      "ren": 912,
      "Ġdaughter": 913,
      "ORK": 914,
      "Ġnat": 915,
      "ĠPrince": 916,
      "rant": 917,
      "Ġlittle": 918,
      "IES": 919,
      "ĠHam": 920,
      "ĠTIM": 921,
      "race": 922,
      "ĠANTON": 923,
      "ĠLUC": 924,
      "ĠShall": 925,
      "ĠEd": 926,
      "ĠRome": 927,
      "Ġhold": 928,
      "ile": 929,
      "Ġfirst": 930,
      "ĠOn": 931,
      "Ġthose": 932,
      "Ġhour": 933,
      "Ġdear": 934,
      "ECOND": 935,
      "men": 936,
      "esar": 937,
      "cl": 938,
      "Ġsle": 939,
      "well": 940,
      "Ġyoung": 941,
      "Ġconf": 942,
      "ET": 943,
      "Ġlords": 944,
      "ĠLORD": 945,
      "Ġagainst": 946,
      "NC": 947,
      "ac": 948,
      "Ġdie": 949,
      "Ġcons": 950,
      "uth": 951,
      "ield": 952,
      "int": 953,
      "ĠBr": 954,
      "Ġansw": 955,
      ".'": 956,
      "Ġgu": 957,
      "Ġgone": 958,
      "ĠSECOND": 959,
      "LY": 960,
      "its": 961,
      "ark": 962,
      "ĠHave": 963,
      "ons": 964,
      "Ġma": 965,
      "Ġchi": 966,
      "USE": 967,
      "alk": 968,
      "ONIC": 969,
      "bl": 970,
      "ĠHer": 971,
      "Ġtra": 972,
      "Ġhimself": 973,
      "Ġrest": 974,
      "Ġeye": 975,
      "99": 976,
      "ret": 977,
      "Ġel": 978,
      "ĠELE": 979,
      "ilt": 980,
      "UCESTER": 981,
      "LOUCESTER": 982,
      "ĠCaesar": 983,
      "for": 984,
      "lt": 985,
      "Ġthine": 986,
      "ĠAt": 987,
      "Ġplace": 988,
      "199": 989,
      "CTR": 990,
      "Ġmind": 991,
      "ĠINC": 992,
      "ĠDISTRIBUT": 993,
      "ĠARE": 994,
      "ĠCOPIES": 995,
      "MERC": 996,
      "ĠELECTR": 997,
      "ĠELECTRONIC": 998,
      "ĠGLOUCESTER": 999,
      "iness": 1000,
      "EEN": 1001,
      "ĠRO": 1002,
      "Ġch": 1003,
      "Ġatt": 1004,
      "Ġcourt": 1005,
      "iv": 1006,
      "Ġboy": 1007,
      "Ġfall": 1008,
      "Ġworth": 1009,
      "Ġwoman": 1010,
      "Ġplay": 1011,
      "AG": 1012,
      "Ġpass": 1013,
      "Ġface": 1014,
      "oud": 1015,
      "ens": 1016,
      "esty": 1017,
      "ĠYet": 1018,
      "Ġstay": 1019,
      "Ġsword": 1020,
      "LI": 1021,
      "istress": 1022,
      "Ġkind": 1023,
      "Ġtill": 1024,
      "Ġtri": 1025,
      "Ġmother": 1026,
      "har": 1027,
      "led": 1028,
      "get": 1029,
      "Ġnone": 1030,
      "Ġgri": 1031,
      "ĠQUEEN": 1032,
      "Ġtongue": 1033,
      "uty": 1034,
      "ĠThy": 1035,
      "ĠPA": 1036,
      "ĠAll": 1037,
      "Ġpeace": 1038,
      "Ġwords": 1039,
      "Ġafter": 1040,
      "Ġanswer": 1041,
      "CH": 1042,
      "UN": 1043,
      "Ġchar": 1044,
      "ison": 1045,
      "Ġfull": 1046,
      "ows": 1047,
      "Ġgi": 1048,
      "irt": 1049,
      "Ġpresent": 1050,
      "ect": 1051,
      "Ġcur": 1052,
      "ĠFrance": 1053,
      "Ġturn": 1054,
      "Ġob": 1055,
      "Ġpe": 1056,
      "Ġres": 1057,
      "SCENE": 1058,
      "Ġhus": 1059,
      "Ġelse": 1060,
      "ab": 1061,
      "ĠAnt": 1062,
      "Ġfortun": 1063,
      "Ġbring": 1064,
      "Ġunder": 1065,
      "Ġthough": 1066,
      "Ġimp": 1067,
      "Ġche": 1068,
      "OWN": 1069,
      "RY": 1070,
      "OT": 1071,
      "Ġdra": 1072,
      "Ġforth": 1073,
      "Ġright": 1074,
      "AM": 1075,
      "ĠOur": 1076,
      "Ġneed": 1077,
      "ition": 1078,
      "sand": 1079,
      "Ġback": 1080,
      "ult": 1081,
      "ĠJo": 1082,
      "Ġcount": 1083,
      "ĠCLO": 1084,
      "ICK": 1085,
      "Ġtre": 1086,
      "Ġbel": 1087,
      "Ġspir": 1088,
      "ENRY": 1089,
      "ĠHENRY": 1090,
      "Ġseem": 1091,
      "Ġmean": 1092,
      "Ġwhose": 1093,
      "ĠQue": 1094,
      "ale": 1095,
      "Ġmatter": 1096,
      "Ġcrown": 1097,
      "Ġmeet": 1098,
      "AFF": 1099,
      "band": 1100,
      "Ġacc": 1101,
      "Ġpri": 1102,
      "Ġsaid": 1103,
      "ĠQueen": 1104,
      "UM": 1105,
      "ICH": 1106,
      "OST": 1107,
      "Ġchan": 1108,
      "asure": 1109,
      "Ġonce": 1110,
      "Ġwrong": 1111,
      "Ġsub": 1112,
      "AST": 1113,
      "ĠRICH": 1114,
      "Ġvill": 1115,
      "eech": 1116,
      "ĠBR": 1117,
      "Ġanother": 1118,
      "Ġchild": 1119,
      "Ġreason": 1120,
      "Ġletter": 1121,
      "Ġbid": 1122,
      "IG": 1123,
      "Ġfaith": 1124,
      "Ġhum": 1125,
      "ĠUp": 1126,
      "Ġhusband": 1127,
      "Ġpra": 1128,
      "Ġret": 1129,
      "OP": 1130,
      "ail": 1131,
      "ix": 1132,
      "lp": 1133,
      "side": 1134,
      "Ġtherefore": 1135,
      "hile": 1136,
      "Ġhope": 1137,
      "ĠCHAR": 1138,
      "hn": 1139,
      "Ġsold": 1140,
      "orse": 1141,
      "Ġunto": 1142,
      "ried": 1143,
      "Ġthing": 1144,
      "STAFF": 1145,
      "ALSTAFF": 1146,
      "Ġearth": 1147,
      "Ġover": 1148,
      "Ġcou": 1149,
      "ont": 1150,
      "Ġthree": 1151,
      "ĠFALSTAFF": 1152,
      "Ġindeed": 1153,
      "Ġdre": 1154,
      "Ġbes": 1155,
      "Ġfal": 1156,
      "Ġthr": 1157,
      "Ġabout": 1158,
      "Ġmo": 1159,
      "Ġass": 1160,
      "Ġkill": 1161,
      "Ġhome": 1162,
      "Ġbod": 1163,
      "Ġplease": 1164,
      "AY": 1165,
      "ory": 1166,
      "OB": 1167,
      "ati": 1168,
      "ĠFrom": 1169,
      "air": 1170,
      "selves": 1171,
      "ĠJohn": 1172,
      "Ġlight": 1173,
      "Ġstre": 1174,
      "ister": 1175,
      "ary": 1176,
      "ets": 1177,
      "Ġdou": 1178,
      "Ġthousand": 1179,
      "eel": 1180,
      "Ġmon": 1181,
      "Ġhence": 1182,
      "Ġeven": 1183,
      "Ġhas": 1184,
      "Ġtruth": 1185,
      "Ġ\"": 1186,
      "IP": 1187,
      "RIN": 1188,
      "ĠĠĠĠĠĠĠĠĠĠ": 1189,
      "ene": 1190,
      "Ġheard": 1191,
      "Ġhands": 1192,
      "Ġsleep": 1193,
      "ĠRICHARD": 1194,
      "ICE": 1195,
      "ELLO": 1196,
      "Ġcause": 1197,
      "Aside": 1198,
      "ĠSERV": 1199,
      "Ġdost": 1200,
      "Ġdisc": 1201,
      "LA": 1202,
      "ph": 1203,
      "Ġwhom": 1204,
      "bt": 1205,
      "ĠĠĠĠĠĠĠĠĠ": 1206,
      "ĠMaster": 1207,
      "Ġnature": 1208,
      "Ġuse": 1209,
      "ertain": 1210,
      "Ġfalse": 1211,
      "ony": 1212,
      "fect": 1213,
      "Ġjust": 1214,
      "Ġmadam": 1215,
      "ĠUpon": 1216,
      "vy": 1217,
      "ĠRom": 1218,
      "Ġvirt": 1219,
      "ĠGive": 1220,
      "ardon": 1221,
      "Ġbed": 1222,
      "ĠSp": 1223,
      "ĠGrace": 1224,
      "Ġsure": 1225,
      "Ġthank": 1226,
      "ERM": 1227,
      "Ġvillain": 1228,
      "ETH": 1229,
      "Ġi": 1230,
      "omet": 1231,
      "Ġcar": 1232,
      "ĠAre": 1233,
      "imes": 1234,
      "ĠĠĠĠĠĠĠĠĠĠĠĠĠĠĠ": 1235,
      "pect": 1236,
      "ants": 1237,
      "Ġpower": 1238,
      "Ġwithin": 1239,
      "mb": 1240,
      "cious": 1241,
      "eal": 1242,
      "ms": 1243,
      "ĠĠĠĠĠĠĠĠĠĠĠĠĠĠ": 1244,
      "Ġsent": 1245,
      "ĠSu": 1246,
      "Ġstate": 1247,
      "ĠGl": 1248,
      "Ġval": 1249,
      "ĠEngland": 1250,
      "ĠII": 1251,
      "ĠĠĠĠĠĠĠĠĠĠĠ": 1252,
      "Ġgold": 1253,
      "Ġlaw": 1254,
      "ury": 1255,
      "Ġmis": 1256,
      "Ġmakes": 1257,
      "Ġwind": 1258,
      "Ġyouth": 1259,
      "Ġshame": 1260,
      "IAM": 1261,
      "Ġbreak": 1262,
      "Ġnews": 1263,
      "ĠWILL": 1264,
      "ches": 1265,
      "Ġbus": 1266,
      "Ġthings": 1267,
      "Ġhither": 1268,
      "vere": 1269,
      "ring": 1270,
      "ning": 1271,
      "Ġbu": 1272,
      "any": 1273,
      "UTUS": 1274,
      "Ġfar": 1275,
      "ĠGR": 1276,
      "Ġfight": 1277,
      "Ġbea": 1278,
      "ute": 1279,
      "Ġere": 1280,
      "Ġfellow": 1281,
      "ĠBRUTUS": 1282,
      "Ġwel": 1283,
      "ĠBER": 1284,
      "aud": 1285,
      "ĠPAGE": 1286,
      "Ġcame": 1287,
      "ange": 1288,
      "Ġhapp": 1289,
      "ĠLA": 1290,
      "Ġgentleman": 1291,
      "ceive": 1292,
      "ANIO": 1293,
      "day": 1294,
      "ĠĠĠĠĠĠĠĠĠĠĠĠĠ": 1295,
      "ĠANTONY": 1296,
      "Ġmaid": 1297,
      "ĠWILLIAM": 1298,
      "LU": 1299,
      "WN": 1300,
      "fort": 1301,
      "use": 1302,
      "ouch": 1303,
      "Ġgr": 1304,
      "ĠWould": 1305,
      "ĠCLOWN": 1306,
      "ETR": 1307,
      "SAL": 1308,
      "ĠPRIN": 1309,
      "ĠGlou": 1310,
      "OUR": 1311,
      "yal": 1312,
      "Ġill": 1313,
      "Ġsince": 1314,
      "Ġban": 1315,
      "ieve": 1316,
      "Ġenough": 1317,
      "ĠHath": 1318,
      "ĠDid": 1319,
      "Ġadv": 1320,
      "Ġhelp": 1321,
      "Ġrather": 1322,
      "ECT": 1323,
      "ĠROSAL": 1324,
      "ade": 1325,
      "Ġshalt": 1326,
      "Ġgrace": 1327,
      "dd": 1328,
      "ĠSERVANT": 1329,
      "ild": 1330,
      "ĠĠĠĠĠĠĠ": 1331,
      "Ġdoes": 1332,
      "pose": 1333,
      "Ġhang": 1334,
      "Ġland": 1335,
      "Ġye": 1336,
      "Ġwithout": 1337,
      "ONG": 1338,
      "ions": 1339,
      "und": 1340,
      "ĠLook": 1341,
      "Ġdevil": 1342,
      "ctor": 1343,
      "To": 1344,
      "ars": 1345,
      "ĠSh": 1346,
      "ORT": 1347,
      "The": 1348,
      "Ġsec": 1349,
      "Ġhonest": 1350,
      "gether": 1351,
      "ĠLe": 1352,
      "Ġbody": 1353,
      "'re": 1354,
      "Ġlast": 1355,
      "vers": 1356,
      "Ġgods": 1357,
      "Ġinst": 1358,
      "ener": 1359,
      "Ġenem": 1360,
      ".]": 1361,
      "ĠOTHELLO": 1362,
      "Ġsound": 1363,
      "Ġbo": 1364,
      "ours": 1365,
      "MAN": 1366,
      "Ġtears": 1367,
      "Ġattend": 1368,
      "ĠIAG": 1369,
      "Ġlay": 1370,
      "Ġgre": 1371,
      "Ġunc": 1372,
      "ĠIAGO": 1373,
      "ĠAr": 1374,
      "ĠSIR": 1375,
      "ousin": 1376,
      "Ġwelcome": 1377,
      "ATH": 1378,
      "Ġcare": 1379,
      "ates": 1380,
      "ĠFal": 1381,
      "ĠLE": 1382,
      "Ġsun": 1383,
      "ĠTHE": 1384,
      "jesty": 1385,
      "Ġmistress": 1386,
      "Ġop": 1387,
      "Ġpers": 1388,
      "Ġfault": 1389,
      "ner": 1390,
      "ork": 1391,
      "ĠFare": 1392,
      "Ġstri": 1393,
      "Ġdeed": 1394,
      "LD": 1395,
      "Ġyourself": 1396,
      "Ġsend": 1397,
      "ĠCASS": 1398,
      "Ġcommand": 1399,
      "ject": 1400,
      "ues": 1401,
      "Ġseen": 1402,
      "Ġbreath": 1403,
      "een": 1404,
      "ĠLONG": 1405,
      "ides": 1406,
      "Ġstrange": 1407,
      "ily": 1408,
      "Ġpati": 1409,
      "ISS": 1410,
      "Ġgrief": 1411,
      "ger": 1412,
      "Ġfire": 1413,
      "ĠTherefore": 1414,
      "ween": 1415,
      "DES": 1416,
      "iers": 1417,
      "urther": 1418,
      "Ġswear": 1419,
      "Ġsaw": 1420,
      "ABLE": 1421,
      "Ġfortune": 1422,
      "Ġspirit": 1423,
      "Ġnear": 1424,
      "Ġkiss": 1425,
      "Ġstrong": 1426,
      "ĠSO": 1427,
      "Ġmeans": 1428,
      "ents": 1429,
      "ains": 1430,
      "ĠĠĠĠĠĠĠĠĠĠĠĠĠĠĠĠĠ": 1431,
      "de": 1432,
      "ike": 1433,
      "ten": 1434,
      "Ġhigh": 1435,
      "ĠYORK": 1436,
      "Ġdru": 1437,
      "Ġless": 1438,
      "enter": 1439,
      "ĠClaud": 1440,
      "Ġsomet": 1441,
      "OLK": 1442,
      "Ġremem": 1443,
      "Ġwhy": 1444,
      "ats": 1445,
      "ĠSCENE": 1446,
      "ĠBE": 1447,
      "ĠCLE": 1448,
      "PLE": 1449,
      "UFF": 1450,
      "ĠMEN": 1451,
      "ACT": 1452,
      "by": 1453,
      "op": 1454,
      "Ġpal": 1455,
      "Ġjoy": 1456,
      "ĠCan": 1457,
      "ĠMAY": 1458,
      "ĠRE": 1459,
      "iz": 1460,
      "hold": 1461,
      "Ġprove": 1462,
      "ITH": 1463,
      "Ġwish": 1464,
      "Ġweep": 1465,
      "Ġlost": 1466,
      "hes": 1467,
      "Ġgrow": 1468,
      "Ġhorse": 1469,
      "ĠEven": 1470,
      "usic": 1471,
      "Ġrun": 1472,
      "Ġreturn": 1473,
      "AS": 1474,
      "ey": 1475,
      "Ġonly": 1476,
      "EMB": 1477,
      "Ġyours": 1478,
      "Ġspo": 1479,
      "INIUS": 1480,
      "Ġsea": 1481,
      "ĠUn": 1482,
      "Ġarms": 1483,
      "anger": 1484,
      "Ġthrough": 1485,
      "ĠWAR": 1486,
      "ĠĠĠĠĠĠĠĠĠĠĠĠĠĠĠĠĠĠĠĠĠĠĠĠĠ": 1487,
      "WICK": 1488,
      "Ġsick": 1489,
      "Ġpardon": 1490,
      "ATR": 1491,
      "IZ": 1492,
      "dom": 1493,
      "Ġprom": 1494,
      "Ġget": 1495,
      "ĠMESS": 1496,
      "ads": 1497,
      "Ġstra": 1498,
      "ĠTIMON": 1499,
      "OPATR": 1500,
      "ĠCLEOPATR": 1501,
      "ĠCLEOPATRA": 1502,
      "LAND": 1503,
      "Ġtalk": 1504,
      "UTEN": 1505,
      "ran": 1506,
      "rink": 1507,
      "ĠCass": 1508,
      "oney": 1509,
      "HAM": 1510,
      "ĠWARWICK": 1511,
      "Ġtogether": 1512,
      "alth": 1513,
      "oe": 1514,
      "Ġfree": 1515,
      "iet": 1516,
      "night": 1517,
      "ĠLear": 1518,
      "INO": 1519,
      "ift": 1520,
      "Ġhard": 1521,
      "Ġcountry": 1522,
      "EY": 1523,
      "ken": 1524,
      "ithe": 1525,
      "ĠSome": 1526,
      "ĠMay": 1527,
      "EGE": 1528,
      "Ġden": 1529,
      "sed": 1530,
      "GER": 1531,
      "Ġborn": 1532,
      "ĠFR": 1533,
      "Ġitself": 1534,
      "ĠKATH": 1535,
      "ĠJul": 1536,
      "Ġthoughts": 1537,
      "VIA": 1538,
      "ople": 1539,
      "Ġcousin": 1540,
      "Ġvo": 1541,
      "els": 1542,
      "Ġjud": 1543,
      "Ġdisp": 1544,
      "Ġleft": 1545,
      "Ġbusiness": 1546,
      "XT": 1547,
      "outh": 1548,
      "Ġsorrow": 1549,
      "ster": 1550,
      "ĠThese": 1551,
      "ĠGENT": 1552,
      "Ġsupp": 1553,
      "ERSON": 1554,
      "ĠWhose": 1555,
      "Ġroyal": 1556,
      "IANA": 1557,
      "ĠGENTLE": 1558,
      "morrow": 1559,
      "Ġwant": 1560,
      "ĠYork": 1561,
      "Ġsays": 1562,
      "ĠMa": 1563,
      "Ġtem": 1564,
      "Ġsing": 1565,
      "Ġwilt": 1566,
      "Ġfore": 1567,
      "enry": 1568,
      "ĠThough": 1569,
      "Ġfound": 1570,
      "Ġhalf": 1571,
      "Ġalone": 1572,
      ".,": 1573,
      "lish": 1574,
      "tw": 1575,
      "Ġfly": 1576,
      "Ġfoul": 1577,
      "ĠSYR": 1578,
      "ĠHenry": 1579,
      "ĠLu": 1580,
      "Ġread": 1581,
      "ACUSE": 1582,
      "ĠOTHERS": 1583,
      "rench": 1584,
      "ĠSYRACUSE": 1585,
      "UL": 1586,
      "ĠWas": 1587,
      "UCK": 1588,
      "aw": 1589,
      "Ġsight": 1590,
      "ĠMore": 1591,
      "mer": 1592,
      "ĠTro": 1593,
      "Ġgener": 1594,
      "ross": 1595,
      "Ġseek": 1596,
      "Ġdist": 1597,
      "Ġdraw": 1598,
      "IGH": 1599,
      "Ġcry": 1600,
      "IND": 1601,
      "gainst": 1602,
      "Ġservice": 1603,
      "BERG": 1604,
      "HINE": 1605,
      "let": 1606,
      "Ġlate": 1607,
      "Ġtold": 1608,
      "ĠCOR": 1609,
      "Ġlies": 1610,
      "Ġexce": 1611,
      "Ġbeauty": 1612,
      "rs": 1613,
      "ENGER": 1614,
      "Ġcomfort": 1615,
      "Ġbloody": 1616,
      "hard": 1617,
      "PRO": 1618,
      "Ġaw": 1619,
      "Ġsister": 1620,
      "Ġmet": 1621,
      "Ġca": 1622,
      "Ġwear": 1623,
      "Ġproud": 1624,
      "ROM": 1625,
      "onder": 1626,
      "TEXT": 1627,
      "ĠAntony": 1628,
      "HIP": 1629,
      "KES": 1630,
      "ĠĠĠĠĠĠĠĠĠĠĠĠĠĠĠĠĠĠ": 1631,
      "Ġreven": 1632,
      "Ġdef": 1633,
      "ARE": 1634,
      "ARY": 1635,
      "ĠMESSENGER": 1636,
      "GES": 1637,
      "ls": 1638,
      "Ġsame": 1639,
      "ĠĠĠĠĠĠĠĠĠĠĠĠĠĠĠĠĠĠĠĠĠĠ": 1640,
      "Ġdesire": 1641,
      "ĠTIME": 1642,
      "ĠUS": 1643,
      "erv": 1644,
      "Ġgave": 1645,
      "Ġrec": 1646,
      "IGHT": 1647,
      "COM": 1648,
      "IAL": 1649,
      "ense": 1650,
      "ĠAS": 1651,
      "ĠWOR": 1652,
      "Ġfare": 1653,
      "THIS": 1654,
      "ICT": 1655,
      "Ġwork": 1656,
      "ĠTHAT": 1657,
      "like": 1658,
      "form": 1659,
      "Ġdoubt": 1660,
      "ithee": 1661,
      "PROV": 1662,
      ".>": 1663,
      "<<": 1664,
      "DISTRIBUT": 1665,
      "HIB": 1666,
      "JECT": 1667,
      "NLY": 1668,
      "PERSON": 1669,
      "RARY": 1670,
      "SHA": 1671,
      "SERV": 1672,
      "WITH": 1673,
      "ĠUSE": 1674,
      "Ġ199": 1675,
      "Ġbro": 1676,
      "ĠILL": 1677,
      "ĠWORK": 1678,
      "ĠSUCH": 1679,
      "ĠBEN": 1680,
      "ĠMEMB": 1681,
      "ĠONLY": 1682,
      "ĠPERM": 1683,
      "ĠETEXT": 1684,
      "ĠLIB": 1685,
      "ĠGUTEN": 1686,
      "ĠDOWN": 1687,
      "ĠNOT": 1688,
      "ĠYOUR": 1689,
      "Ġsuff": 1690,
      "LLY": 1691,
      "LLEGE": 1692,
      "Ġprison": 1693,
      "IALLY": 1694,
      "ĠANY": 1695,
      "EDICT": 1696,
      "ĠCOLLEGE": 1697,
      "ĠVERS": 1698,
      "LOAD": 1699,
      "ERSHIP": 1700,
      "ADABLE": 1701,
      "ITED": 1702,
      "ĠPROHIB": 1703,
      "ĠPROJECT": 1704,
      "IDED": 1705,
      "ĠCOPYR": 1706,
      "ĠCOMMERC": 1707,
      "ĠCOMPLE": 1708,
      "ĠMACHINE": 1709,
      "PEARE": 1710,
      "1993": 1711,
      "ĠINCLU": 1712,
      "ĠDISTRIBUTED": 1713,
      "ĠDISTRIBUTION": 1714,
      "MERCIALLY": 1715,
      "ĠCHARGES": 1716,
      "ISSION": 1717,
      "ĠREADABLE": 1718,
      "INOIS": 1719,
      "KESPEARE": 1720,
      "ĠUSED": 1721,
      "COMMERCIALLY": 1722,
      "ĠWORLD": 1723,
      "PROVIDED": 1724,
      ".>>": 1725,
      "DISTRIBUTED": 1726,
      "PERSONAL": 1727,
      "SHAKESPEARE": 1728,
      "SERVICE": 1729,
      "Ġ1990": 1730,
      "ĠILLINOIS": 1731,
      "ĠWORKS": 1732,
      "ĠBENEDICT": 1733,
      "ĠMEMBERSHIP": 1734,
      "ĠPERMISSION": 1735,
      "ĠLIBRARY": 1736,
      "ĠGUTENBERG": 1737,
      "ĠDOWNLOAD": 1738,
      "ĠVERSION": 1739,
      "ĠPROHIBITED": 1740,
      "ĠCOPYRIGHT": 1741,
      "ĠCOMMERCIAL": 1742,
      "ĠCOMPLETE": 1743,
      "ĠINCLUDES": 1744,
      "ĠBENEDICTINE": 1745,
      "RS": 1746,
      "up": 1747,
      "Ġpurpose": 1748,
      "Ġpeople": 1749,
      "ĠROSALIND": 1750,
      "ures": 1751,
      "ĠPo": 1752,
      "ĠĠĠĠĠĠĠĠĠĠĠĠĠĠĠĠĠĠĠĠĠ": 1753,
      "gs": 1754,
      "Ġfield": 1755,
      "Ġoath": 1756,
      "Ġcra": 1757,
      "ĠTIT": 1758,
      "ĠMRS": 1759,
      "ĠFORD": 1760,
      "Ġtend": 1761,
      "Ġbri": 1762,
      "Ġself": 1763,
      "Ġhate": 1764,
      "Ġsit": 1765,
      "itor": 1766,
      "cester": 1767,
      "Ġcold": 1768,
      "DER": 1769,
      "IPH": 1770,
      "kes": 1771,
      "ĠHigh": 1772,
      "Ġdep": 1773,
      "ial": 1774,
      "Ġsad": 1775,
      "rest": 1776,
      "Ġpity": 1777,
      "ĠSay": 1778,
      "ounds": 1779,
      "Ġsil": 1780,
      "Ġquick": 1781,
      "BETH": 1782,
      "av": 1783,
      "Ġcond": 1784,
      "ĠSw": 1785,
      "urse": 1786,
      "ĠPray": 1787,
      "ĠMACBETH": 1788,
      "Ġfit": 1789,
      "Ġlear": 1790,
      "ĠPAR": 1791,
      "ONT": 1792,
      "Ġfoot": 1793,
      "ĠSpeak": 1794,
      "WARD": 1795,
      "Ġaff": 1796,
      "Ġwat": 1797,
      "Ġdam": 1798,
      "ĠTill": 1799,
      "ĠTake": 1800,
      "ĠAG": 1801,
      "oose": 1802,
      "ĠFrench": 1803,
      "Ġsoon": 1804,
      "Ġknows": 1805,
      "Ġbeseech": 1806,
      "Ġtimes": 1807,
      "Ġair": 1808,
      "ĠBA": 1809,
      "OLUS": 1810,
      "IPHOLUS": 1811,
      "ĠJO": 1812,
      "cius": 1813,
      "Ġcompany": 1814,
      "OLL": 1815,
      "ns": 1816,
      "Ġwin": 1817,
      "ĠNe": 1818,
      "Ġlose": 1819,
      "Ġlooks": 1820,
      "most": 1821,
      "Ġcoun": 1822,
      "ĠGENTLEMAN": 1823,
      "bour": 1824,
      "Ġsk": 1825,
      "Ġdare": 1826,
      "Ġforg": 1827,
      "ĠLAD": 1828,
      "Ġcommon": 1829,
      "ĠMajesty": 1830,
      "Ex": 1831,
      "cess": 1832,
      "ling": 1833,
      "ĠPAND": 1834,
      "ĠĠĠĠĠĠĠĠĠĠĠĠĠĠĠĠĠĠĠ": 1835,
      "ĠWere": 1836,
      "Ġdream": 1837,
      "Ġage": 1838,
      "ĠWar": 1839,
      "ĠCR": 1840,
      "Ġexp": 1841,
      "Ġdays": 1842,
      "Ġuncle": 1843,
      "HN": 1844,
      "xt": 1845,
      "Ġter": 1846,
      "Ġdanger": 1847,
      "Ġdel": 1848,
      "ARUS": 1849,
      "Ġcharge": 1850,
      "ĠJOHN": 1851,
      "ub": 1852,
      "Ġcho": 1853,
      "arry": 1854,
      "Ġinf": 1855,
      "ĠHEL": 1856,
      "ĠMad": 1857,
      "Ġvi": 1858,
      "Ġtrust": 1859,
      "Ġmark": 1860,
      "ĠLeon": 1861,
      "ĠHELEN": 1862,
      "Ġdrink": 1863,
      "Ġserve": 1864,
      "Ġsin": 1865,
      "Ġmusic": 1866,
      "Ġwa": 1867,
      "eter": 1868,
      "Ġund": 1869,
      "Ġloves": 1870,
      "Ġbetween": 1871,
      "ments": 1872,
      "ĠOne": 1873,
      "LAN": 1874,
      "be": 1875,
      "now": 1876,
      "the": 1877,
      "ĠPro": 1878,
      "urd": 1879,
      "ĠKent": 1880,
      "ices": 1881,
      "Ġprince": 1882,
      "HE": 1883,
      "vent": 1884,
      "ĠĠĠĠĠĠ": 1885,
      "ham": 1886,
      "Ġfav": 1887,
      "Ġgeneral": 1888,
      "gg": 1889,
      "ible": 1890,
      "ted": 1891,
      "ĠMost": 1892,
      "Ġeach": 1893,
      "Ġask": 1894,
      "ĠEdward": 1895,
      "ĠCom": 1896,
      "Ġbelieve": 1897,
      "ĠFarewell": 1898,
      "cause": 1899,
      "wick": 1900,
      "Ġwise": 1901,
      "ĠHa": 1902,
      "Ġgrave": 1903,
      "Ġworthy": 1904,
      "ives": 1905,
      "ĠCIT": 1906,
      "ĠLike": 1907,
      "Ġlives": 1908,
      "Ġqueen": 1909,
      "IZEN": 1910,
      "ĠHighness": 1911,
      "ĠCITIZEN": 1912,
      "rew": 1913,
      "ĠRic": 1914,
      "Ġsum": 1915,
      "INGHAM": 1916,
      "ĠVAL": 1917,
      "ĠĠĠĠĠĠĠĠĠĠĠĠĠĠĠĠĠĠĠĠĠĠĠ": 1918,
      "Ġgracious": 1919,
      "Ġwarrant": 1920,
      "ROMIO": 1921,
      "Ġcertain": 1922,
      "Ġyears": 1923,
      "Ġpar": 1924,
      "utus": 1925,
      "Ġthyself": 1926,
      "Ġbrought": 1927,
      "Ġmarry": 1928,
      "aking": 1929,
      "ELLA": 1930,
      "ĠMarry": 1931,
      "ABELLA": 1932,
      "Ġhappy": 1933,
      "aim": 1934,
      "aff": 1935,
      "Ġmoney": 1936,
      "Ġfurther": 1937,
      "ĠEN": 1938,
      "Ġknown": 1939,
      "ford": 1940,
      "gue": 1941,
      "Ġbir": 1942,
      "Ġyield": 1943,
      "ĠTell": 1944,
      "ĠLady": 1945,
      "ief": 1946,
      "Ġholy": 1947,
      "Ġwrit": 1948,
      "ĠWarwick": 1949,
      "TA": 1950,
      "ting": 1951,
      "Ġmin": 1952,
      "Ġbat": 1953,
      "Ġcut": 1954,
      "ĠBO": 1955,
      "Ġcontent": 1956,
      "Ġgiven": 1957,
      "ĠRichard": 1958,
      "hal": 1959,
      "Ġbar": 1960,
      "Ġbound": 1961,
      "ery": 1962,
      "ĠED": 1963,
      "ENIUS": 1964,
      "Ġothers": 1965,
      "Ġbrave": 1966,
      "ĠMENENIUS": 1967,
      "ĠMadam": 1968,
      "ĠOLI": 1969,
      "estion": 1970,
      "fection": 1971,
      "ĠBefore": 1972,
      "ANTIPHOLUS": 1973,
      "az": 1974,
      "Ġac": 1975,
      "erve": 1976,
      "Ġhell": 1977,
      "Ġpleasure": 1978,
      "Ġvirtue": 1979,
      "PER": 1980,
      "gar": 1981,
      "Ġpast": 1982,
      "Ġdeep": 1983,
      "ĠYes": 1984,
      "Ġpleas": 1985,
      "UCHIO": 1986,
      "Ġpraise": 1987,
      "ĠPRINCE": 1988,
      "UCKINGHAM": 1989,
      "ĠEDWARD": 1990,
      "Ġpay": 1991,
      "Ġbeat": 1992,
      "Ġinc": 1993,
      "ĠBUCKINGHAM": 1994,
      "IOLAN": 1995,
      "ĠEnglish": 1996,
      "ĠBrutus": 1997,
      "IOLANUS": 1998,
      "bs": 1999,
      "ceed": 2000,
      "Ġsovere": 2001,
      "ĠNOR": 2002,
      "Ġposs": 2003,
      "Ġreport": 2004,
      "ĠANTONIO": 2005,
      "UFFOLK": 2006,
      "ĠLADY": 2007,
      "Ġact": 2008,
      "Ġside": 2009,
      "Ġcor": 2010,
      "ĠAway": 2011,
      "oward": 2012,
      "ĠPETR": 2013,
      "ONA": 2014,
      "Ġpoint": 2015,
      "ĠPETRUCHIO": 2016,
      "ship": 2017,
      "Ġwhile": 2018,
      "Ġdiv": 2019,
      "ĠSUFFOLK": 2020,
      "enty": 2021,
      "ĠDe": 2022,
      "Ġsave": 2023,
      "Ġhearts": 2024,
      "ĠBeat": 2025,
      "Ġlead": 2026,
      "ĠAlas": 2027,
      "UNT": 2028,
      "ĠCORIOLANUS": 2029,
      "iant": 2030,
      "Ġsake": 2031,
      "ĠSee": 2032,
      "ĠHad": 2033,
      "ĠRos": 2034,
      "Ġknave": 2035,
      "ĠGloucester": 2036,
      "Ġten": 2037,
      "ĠPl": 2038,
      "Ġrequ": 2039,
      "ush": 2040,
      "Ġjo": 2041,
      "ĠTITUS": 2042,
      "Ġbold": 2043,
      "lly": 2044,
      "INA": 2045,
      "Ġdev": 2046,
      "Ġrich": 2047,
      "ĠPANDARUS": 2048,
      "ek": 2049,
      "Ġtouch": 2050,
      "Ġmouth": 2051,
      "Ġwis": 2052,
      "ĠTOB": 2053,
      "Ġgall": 2054,
      "ENTINE": 2055,
      "OWNE": 2056,
      "Ġperson": 2057,
      "ĠTOBY": 2058,
      "ne": 2059,
      "Ġmock": 2060,
      "Ġfour": 2061,
      "ĠWh": 2062,
      "ĠCon": 2063,
      "Ġeat": 2064,
      "oof": 2065,
      "ESAR": 2066,
      "Ġknight": 2067,
      "ĠCAESAR": 2068,
      "ĠHELENA": 2069,
      "ned": 2070,
      "Ġest": 2071,
      "Ġmorn": 2072,
      "Ġcol": 2073,
      "ots": 2074,
      "Ġsuit": 2075,
      "Ġsoldiers": 2076,
      "Ġground": 2077,
      "DEM": 2078,
      "Ġsur": 2079,
      "Ġsign": 2080,
      "anc": 2081,
      "ĠDES": 2082,
      "Ġlov": 2083,
      "iece": 2084,
      "Ġprof": 2085,
      "Ġconfess": 2086,
      "ĠBEROWNE": 2087,
      "ĠVALENTINE": 2088,
      "DEMONA": 2089,
      "ĠDESDEMONA": 2090,
      "DROMIO": 2091,
      "no": 2092,
      "ĠCh": 2093,
      "ĠThus": 2094,
      "Ġheavy": 2095,
      "ESSID": 2096,
      "Ġenemy": 2097,
      "ĠCRESSID": 2098,
      "ĠCRESSIDA": 2099,
      "esh": 2100,
      "ĠAh": 2101,
      "ĠSHA": 2102,
      "Ġblack": 2103,
      "inks": 2104,
      "Ġsons": 2105,
      "Ġtender": 2106,
      "Ġgar": 2107,
      "amp": 2108,
      "Ġmerry": 2109,
      "Ġmercy": 2110,
      "!'": 2111,
      "IER": 2112,
      "SC": 2113,
      "ĠMake": 2114,
      "edi": 2115,
      "hil": 2116,
      "LLOW": 2117,
      "Ġgoes": 2118,
      "ĠPROTE": 2119,
      "Ġsubject": 2120,
      "ĠPAROLL": 2121,
      "ĠSHALLOW": 2122,
      "ĠPROTEUS": 2123,
      "ĠPAROLLES": 2124,
      "ior": 2125,
      "Ġwoo": 2126,
      "Ġhot": 2127,
      "ĠHor": 2128,
      "alt": 2129,
      "Ġknew": 2130,
      "Ġwomen": 2131,
      "Ġfarewell": 2132,
      "Ġwatch": 2133,
      "Ġbos": 2134,
      "ĠTRO": 2135,
      "ries": 2136,
      "Ġring": 2137,
      "ĠSc": 2138,
      "ESUS": 2139,
      "Ġvis": 2140,
      "Ġbless": 2141,
      "PHESUS": 2142,
      "ILUS": 2143,
      "Ġpatience": 2144,
      "ĠTROILUS": 2145,
      "ires": 2146,
      "sue": 2147,
      "ĠSOL": 2148,
      "ĠSince": 2149,
      "ERD": 2150,
      "Ġfast": 2151,
      "Ġnext": 2152,
      "IRD": 2153,
      "ĠTHIRD": 2154,
      "YM": 2155,
      "Ġdro": 2156,
      "Ġpen": 2157,
      "ĠPed": 2158,
      "ourish": 2159,
      "ANCE": 2160,
      "Ġshort": 2161,
      "Ġthemselves": 2162,
      "Ġquar": 2163,
      "CUS": 2164,
      "com": 2165,
      "uff": 2166,
      "rem": 2167,
      "Ġburn": 2168,
      "Ġcast": 2169,
      "ĠOut": 2170,
      "Ġspeed": 2171,
      "ally": 2172,
      "Ġcourse": 2173,
      "ĠLUCIUS": 2174,
      "Ġbosom": 2175,
      ".-": 2176,
      "ray": 2177,
      "Ġtown": 2178,
      "ated": 2179,
      "ĠPer": 2180,
      "ĠDes": 2181,
      "Ġdesp": 2182,
      "Ġchange": 2183,
      "Ġvoice": 2184,
      "pl": 2185,
      "Ġlad": 2186,
      "ĠAL": 2187,
      "vel": 2188,
      "ask": 2189,
      "thing": 2190,
      "Ġears": 2191,
      "Ġopen": 2192,
      "ĠPedro": 2193,
      "uous": 2194,
      "Ġord": 2195,
      "Ġbase": 2196,
      "stand": 2197,
      "ĠBen": 2198,
      "irm": 2199,
      "ĠEPHESUS": 2200,
      "Ġneither": 2201,
      "Ġquestion": 2202,
      "Ġprop": 2203,
      "ĠISABELLA": 2204,
      "Ġenter": 2205,
      "Ġbehold": 2206,
      "Ġhair": 2207,
      "ĠCap": 2208,
      "ĠPORT": 2209,
      "Ġtrump": 2210,
      "Ġtook": 2211,
      "Ġappear": 2212,
      "Ġentreat": 2213,
      "Ġguard": 2214,
      "ĠShould": 2215,
      "Ġstraight": 2216,
      "ĠPORTIA": 2217,
      "!-": 2218,
      "Ġwall": 2219,
      "Ġthri": 2220,
      "Ġtoward": 2221,
      "ote": 2222,
      "Ġdog": 2223,
      "gel": 2224,
      "Ġgentlemen": 2225,
      "ethinks": 2226,
      "ĠRomeo": 2227,
      "ixt": 2228,
      "Ġbanish": 2229,
      "Ġremember": 2230,
      "Ġsovereign": 2231,
      "ec": 2232,
      "ges": 2233,
      "Ġ1": 2234,
      "ready": 2235,
      "Ġweak": 2236,
      "Ġworse": 2237,
      "Ġplain": 2238,
      "Ġext": 2239,
      "Ġsomething": 2240,
      "Ġpalace": 2241,
      "Ġcounsel": 2242,
      "Ġta": 2243,
      "Ġduty": 2244,
      "ĠHOST": 2245,
      "rah": 2246,
      "ĠHector": 2247,
      "Ġprov": 2248,
      "BUR": 2249,
      "Ġwalk": 2250,
      "Ġfeel": 2251,
      "ENCE": 2252,
      "aste": 2253,
      "Ġexc": 2254,
      "Ġhaste": 2255,
      "Ġsoldier": 2256,
      "Ġvaliant": 2257,
      "Ġwater": 2258,
      "EB": 2259,
      "Ġfe": 2260,
      "atis": 2261,
      "ANS": 2262,
      ",'": 2263,
      "bly": 2264,
      "cha": 2265,
      "hed": 2266,
      "Ġwret": 2267,
      "ĠTR": 2268,
      "ĠMust": 2269,
      "Ġdeli": 2270,
      "Ġcanst": 2271,
      "ortal": 2272,
      "ague": 2273,
      "Ġappro": 2274,
      "Ġservant": 2275,
      "ĠSweet": 2276,
      "ones": 2277,
      "ĠMistress": 2278,
      "ILIA": 2279,
      "OTH": 2280,
      "Ġemb": 2281,
      "ĠPol": 2282,
      "Ġdoor": 2283,
      "ROKE": 2284,
      "Ġdidst": 2285,
      "ĠEdm": 2286,
      "ĠIII": 2287,
      "BUS": 2288,
      "Ġwoe": 2289,
      "Ġcoward": 2290,
      "ĠTru": 2291,
      "ĠPar": 2292,
      "ĠTheir": 2293,
      "Ġtwenty": 2294,
      "Ġliege": 2295,
      "Ġtraitor": 2296,
      "of": 2297,
      "Ġbad": 2298,
      "ĠSIC": 2299,
      "ARBUS": 2300,
      "Ġcoming": 2301,
      "Ġmarried": 2302,
      "ISTOL": 2303,
      "ully": 2304,
      "Ġpret": 2305,
      "bb": 2306,
      "Ġwonder": 2307,
      "Ġopp": 2308,
      "ities": 2309,
      "Ġoft": 2310,
      "Ġnote": 2311,
      "ĠPeace": 2312,
      "aught": 2313,
      "Ġneeds": 2314,
      "Ġjustice": 2315,
      "ĠCassio": 2316,
      "rous": 2317,
      "ĠSEN": 2318,
      "ĠEm": 2319,
      "Ġunt": 2320,
      "riage": 2321,
      "ends": 2322,
      "ptain": 2323,
      "ĠStand": 2324,
      "Ġglad": 2325,
      "ĠSuch": 2326,
      "Exit": 2327,
      "GEN": 2328,
      "MO": 2329,
      "mber": 2330,
      "ĠIMO": 2331,
      "Ġcity": 2332,
      "Ġcap": 2333,
      "ĠPISTOL": 2334,
      "Ġspeech": 2335,
      "feit": 2336,
      "Ġflesh": 2337,
      "OBARBUS": 2338,
      "ĠENOBARBUS": 2339,
      "BURY": 2340,
      "ĠIMOGEN": 2341,
      "Ġcle": 2342,
      "ĠSIL": 2343,
      "ĠFri": 2344,
      "rows": 2345,
      "Ġharm": 2346,
      "ĠLEONT": 2347,
      "ĠCASSIUS": 2348,
      "Ġrevenge": 2349,
      "ĠLEONTES": 2350,
      "cher": 2351,
      "fter": 2352,
      "over": 2353,
      "Ġcr": 2354,
      "Ġlack": 2355,
      "ĠAgainst": 2356,
      "ĠSAL": 2357,
      "cept": 2358,
      "ĠMAL": 2359,
      "each": 2360,
      "Ġsport": 2361,
      "ĠVIO": 2362,
      "Ġalmost": 2363,
      "Ġalready": 2364,
      "ĠORLAND": 2365,
      "Ġstreng": 2366,
      "ĠKATHER": 2367,
      "ĠORLANDO": 2368,
      "cent": 2369,
      "hood": 2370,
      "ip": 2371,
      "ines": 2372,
      "eness": 2373,
      "Ġhur": 2374,
      "ĠBene": 2375,
      "ĠLove": 2376,
      "east": 2377,
      "umber": 2378,
      "ondon": 2379,
      "Ġscorn": 2380,
      "dden": 2381,
      "Ġspoke": 2382,
      "Ġsuffer": 2383,
      "ĠBOY": 2384,
      "ĠVIOLA": 2385,
      "aid": 2386,
      "Ġaction": 2387,
      "Ġdu": 2388,
      "ona": 2389,
      "Ġgro": 2390,
      "ĠFl": 2391,
      "cks": 2392,
      "Ġprithee": 2393,
      "GELO": 2394,
      "Ġwithal": 2395,
      "Ġpresently": 2396,
      "Ġag": 2397,
      "Ġmove": 2398,
      "asc": 2399,
      "olk": 2400,
      "Ġhours": 2401,
      "Ġrespect": 2402,
      "Ġfavour": 2403,
      "ĠSICINIUS": 2404,
      "pr": 2405,
      "Ġfra": 2406,
      "Ġcreat": 2407,
      "Ġgrant": 2408,
      "Ġlips": 2409,
      "ament": 2410,
      "Ġpluck": 2411,
      "Ġoffend": 2412,
      "Ġclose": 2413,
      "FE": 2414,
      "vol": 2415,
      "Ġdark": 2416,
      "Ġlaugh": 2417,
      "Ġpow": 2418,
      "ĠCor": 2419,
      "Ġwars": 2420,
      "ched": 2421,
      "Ġstands": 2422,
      "QU": 2423,
      "SPER": 2424,
      "Ġbook": 2425,
      "Ġbond": 2426,
      "ĠMer": 2427,
      "Ġforb": 2428,
      "Ġscar": 2429,
      "Ġprep": 2430,
      "ĠClaudio": 2431,
      "ĠOLIVIA": 2432,
      "SPERO": 2433,
      "GAR": 2434,
      "bit": 2435,
      "bert": 2436,
      "ught": 2437,
      "Ġlow": 2438,
      "Ġbecome": 2439,
      "ĠCall": 2440,
      "Ġstir": 2441,
      "Ġred": 2442,
      "Ġsworn": 2443,
      "ĠPROSPERO": 2444,
      "ĠSOLD": 2445,
      "TEN": 2446,
      "rist": 2447,
      "ses": 2448,
      "ĠAU": 2449,
      "Ġheir": 2450,
      "ashi": 2451,
      "alm": 2452,
      "ĠYea": 2453,
      "Ġloss": 2454,
      "Ġconst": 2455,
      "umb": 2456,
      "Ġadd": 2457,
      "ĠĠĠĠĠĠĠĠĠĠĠĠĠĠĠĠĠĠĠĠĠĠĠĠĠĠĠ": 2458,
      "ĠMARGAR": 2459,
      "Ġmoon": 2460,
      "Ġdeny": 2461,
      "Ġmorning": 2462,
      "rel": 2463,
      "ites": 2464,
      "Ġhide": 2465,
      "Ġinter": 2466,
      "ĠBAST": 2467,
      "Ġtrou": 2468,
      "Ġwhite": 2469,
      "ainted": 2470,
      "Ġgrie": 2471,
      "UNCE": 2472,
      "ĠLAUNCE": 2473,
      "ĠTroy": 2474,
      "Ġstrength": 2475,
      "ĠBASTARD": 2476,
      "Ġmot": 2477,
      "Ġmod": 2478,
      "rer": 2479,
      "Ġpu": 2480,
      "Ġbeast": 2481,
      "etch": 2482,
      "oop": 2483,
      "Ġvile": 2484,
      "Ġoffice": 2485,
      "Ġheavens": 2486,
      "Ġdeliver": 2487,
      "Ġjest": 2488,
      "cience": 2489,
      "Ġslave": 2490,
      "Ġexcell": 2491,
      "nk": 2492,
      "Ġid": 2493,
      "Ġwild": 2494,
      "ised": 2495,
      "Ġfeast": 2496,
      "Ġpale": 2497,
      "ĠSPE": 2498,
      "ĠCL": 2499,
      "ĠLa": 2500,
      "Ġsudden": 2501,
      "TRAM": 2502,
      "Ġbattle": 2503,
      "ĠAd": 2504,
      "Ġpap": 2505,
      "Ġform": 2506,
      "Ġready": 2507,
      "empt": 2508,
      "Ġspeaks": 2509,
      "Ġslain": 2510,
      "ĠBERTRAM": 2511,
      "Ġjudg": 2512,
      "ĠMARGARET": 2513,
      "ĠSPEED": 2514,
      "Ġsense": 2515,
      "ĠBl": 2516,
      "Ġreg": 2517,
      "Ġthanks": 2518,
      "Ġtruly": 2519,
      "Ġkingdom": 2520,
      "Ġletters": 2521,
      "mit": 2522,
      "Ġmess": 2523,
      "Ġdire": 2524,
      "ĠBARD": 2525,
      "ĠCEL": 2526,
      "ird": 2527,
      "Ġem": 2528,
      "ĠDoth": 2529,
      "OLPH": 2530,
      "oss": 2531,
      "ĠReg": 2532,
      "were": 2533,
      "Ġlordship": 2534,
      "ĠHero": 2535,
      "ĠBARDOLPH": 2536,
      "ĠCELIA": 2537,
      "eep": 2538,
      "to": 2539,
      "Ġty": 2540,
      "Ġfashi": 2541,
      "ceiv": 2542,
      "ĠHear": 2543,
      "ution": 2544,
      "ĠPOM": 2545,
      "roke": 2546,
      "aken": 2547,
      "Ġdisg": 2548,
      "Ġabs": 2549,
      "Ġabove": 2550,
      "Ġunderstand": 2551,
      "eem": 2552,
      "Ġmal": 2553,
      "Ġmount": 2554,
      "ĠIV": 2555,
      "Ġfat": 2556,
      "Ġdish": 2557,
      "Ġpit": 2558,
      "Ġhaving": 2559,
      "ash": 2560,
      "Ġsever": 2561,
      "ĠJUL": 2562,
      "ENTIO": 2563,
      "Ġpriv": 2564,
      "hind": 2565,
      "pes": 2566,
      "Ġfam": 2567,
      "Ġdin": 2568,
      "ĠSEB": 2569,
      "Ġang": 2570,
      "ĠCOUNT": 2571,
      "Ġchamber": 2572,
      "Ġbegin": 2573,
      "ASTIAN": 2574,
      "ĠPOMPE": 2575,
      "ĠSEBASTIAN": 2576,
      "BY": 2577,
      "cri": 2578,
      "ler": 2579,
      "ron": 2580,
      "Ġcase": 2581,
      "Ġhu": 2582,
      "Ġgot": 2583,
      "ĠMac": 2584,
      "Ġforce": 2585,
      "Ġliving": 2586,
      "ĠNurse": 2587,
      "Ġwhole": 2588,
      "Ġflow": 2589,
      "Ġrage": 2590,
      "Ġwitness": 2591,
      "ATOR": 2592,
      "ĠĠĠĠĠĠĠĠĠĠĠĠĠĠĠĠĠĠĠĠĠĠĠĠĠĠ": 2593,
      "Ġconscience": 2594,
      "Ġspirits": 2595,
      "Ġchildren": 2596,
      "Ġinstru": 2597,
      "ĠBASS": 2598,
      "ĠSOLDIER": 2599,
      "ĠJULIA": 2600,
      "ĠPOMPEY": 2601,
      "ffect": 2602,
      "Ġsigh": 2603,
      "Ġbit": 2604,
      "arum": 2605,
      "Ġoften": 2606,
      "ĠDUCH": 2607,
      "tune": 2608,
      "Ġdeeds": 2609,
      "atisf": 2610,
      "ĠDUCHESS": 2611,
      "mand": 2612,
      "Ġve": 2613,
      "Ġfing": 2614,
      "ĠSign": 2615,
      "ĠEM": 2616,
      "als": 2617,
      "Ġsteal": 2618,
      "ĠDEM": 2619,
      "Ġloving": 2620,
      "asters": 2621,
      "antage": 2622,
      "Ġmarriage": 2623,
      "ĠLUCIO": 2624,
      "ETRIUS": 2625,
      "undred": 2626,
      "ĠDEMETRIUS": 2627,
      "Ġmortal": 2628,
      "rey": 2629,
      "ĠCount": 2630,
      "ĠMo": 2631,
      "Ġstru": 2632,
      "Ġreb": 2633,
      "Ġsoft": 2634,
      "ĠCAM": 2635,
      "Ġpassion": 2636,
      "Ġstrike": 2637,
      "with": 2638,
      "Ġtit": 2639,
      "Ġlim": 2640,
      "ench": 2641,
      "ĠAP": 2642,
      "Ġbeard": 2643,
      "Ġeither": 2644,
      "Ġrel": 2645,
      "ĠBeing": 2646,
      "ĠARM": 2647,
      "ĠFRANCE": 2648,
      "hilst": 2649,
      "Ġsim": 2650,
      "Ġmorrow": 2651,
      "Ġwound": 2652,
      "Ġfive": 2653,
      "Ġhundred": 2654,
      "Ġeas": 2655,
      "ĠDis": 2656,
      "ations": 2657,
      "Ġdread": 2658,
      "ĠPRINC": 2659,
      "Ġlearn": 2660,
      "ĠChrist": 2661,
      "Ġfashion": 2662,
      "BROKE": 2663,
      "VIUS": 2664,
      "ZAB": 2665,
      "orth": 2666,
      "Ġfill": 2667,
      "enge": 2668,
      "ĠHarry": 2669,
      "ĠELI": 2670,
      "ARENCE": 2671,
      "astard": 2672,
      "ieu": 2673,
      "INGBROKE": 2674,
      "OLINGBROKE": 2675,
      "Ġaffection": 2676,
      "Ġchur": 2677,
      "Ġchance": 2678,
      "ĠLAFE": 2679,
      "ĠNever": 2680,
      "ĠPRINCESS": 2681,
      "ZABETH": 2682,
      "ĠELIZABETH": 2683,
      "ĠLAFEU": 2684,
      "NE": 2685,
      "Ġmist": 2686,
      "ited": 2687,
      "Ġcross": 2688,
      "ĠAm": 2689,
      "Ġbehind": 2690,
      "ĠBOLINGBROKE": 2691,
      "ĠHast": 2692,
      "imon": 2693,
      "Ġissue": 2694,
      "ENS": 2695,
      "Ġwouldst": 2696,
      "une": 2697,
      "ADO": 2698,
      "ĠHamlet": 2699,
      "Ġresol": 2700,
      "Ġcheer": 2701,
      "ĠCOUNTESS": 2702,
      "ĠARMADO": 2703,
      "Tw": 2704,
      "ying": 2705,
      "Ġfeed": 2706,
      "ĠAb": 2707,
      "Ġgift": 2708,
      "lex": 2709,
      "ĠMUR": 2710,
      "ĠPom": 2711,
      "urs": 2712,
      "Ġexec": 2713,
      "Ġheads": 2714,
      "Ġsecond": 2715,
      "Ġenemies": 2716,
      "ĠCASSIO": 2717,
      "ĠCLARENCE": 2718,
      "HY": 2719,
      "ny": 2720,
      "inces": 2721,
      "Ġble": 2722,
      "Ġocc": 2723,
      "Ġcru": 2724,
      "Ġlust": 2725,
      "ĠBel": 2726,
      "Ġeffect": 2727,
      "idd": 2728,
      "EST": 2729,
      "Ġshad": 2730,
      "ardin": 2731,
      "resh": 2732,
      "fere": 2733,
      "Ġworship": 2734,
      "Ġran": 2735,
      "Ġbreast": 2736,
      "ANTUS": 2737,
      "EMANTUS": 2738,
      "ĠMarg": 2739,
      "Ġsouls": 2740,
      "claim": 2741,
      "LIFF": 2742,
      "Ġgives": 2743,
      "Ġacqu": 2744,
      "ĠEMILIA": 2745,
      "ĠAPEMANTUS": 2746,
      "ĠInd": 2747,
      "Ġhost": 2748,
      "ĠFa": 2749,
      "raw": 2750,
      "umph": 2751,
      "Ġpoison": 2752,
      "Ġfortunes": 2753,
      "Ġpretty": 2754,
      "ĠSignior": 2755,
      "Ġut": 2756,
      "arl": 2757,
      "ancy": 2758,
      "ety": 2759,
      "ram": 2760,
      "ĠKate": 2761,
      "ĠKnow": 2762,
      "Ġourselves": 2763,
      "ĠANNE": 2764,
      "ument": 2765,
      "Ġalong": 2766,
      "Ġobs": 2767,
      "Ġtreason": 2768,
      "ĠRoman": 2769,
      "ĠFriar": 2770,
      "BEL": 2771,
      "Ġtale": 2772,
      "Ġshi": 2773,
      "Ġbow": 2774,
      "Ġpost": 2775,
      "Ġhealth": 2776,
      "ĠHot": 2777,
      "ider": 2778,
      "Ġrevere": 2779,
      "Ġlion": 2780,
      "vern": 2781,
      "Ġnoise": 2782,
      "ils": 2783,
      "Ġoffer": 2784,
      "Ġparts": 2785,
      "peror": 2786,
      "Ġmighty": 2787,
      "Ġchoose": 2788,
      "YMBEL": 2789,
      "YMBELINE": 2790,
      "ETER": 2791,
      "VANS": 2792,
      "ging": 2793,
      "Ġign": 2794,
      "Ġsatisf": 2795,
      "Ġforget": 2796,
      "ĠPOST": 2797,
      "ĠEVANS": 2798,
      "alb": 2799,
      "ural": 2800,
      "Ġkings": 2801,
      "Ġpride": 2802,
      "Ġunk": 2803,
      "ĠBecause": 2804,
      "Ġlonger": 2805,
      "Ġsmall": 2806,
      "ĠMARIA": 2807,
      "force": 2808,
      "Ġsecret": 2809,
      "ĠSENATOR": 2810,
      "bury": 2811,
      "chan": 2812,
      "oint": 2813,
      "Ġtent": 2814,
      "ises": 2815,
      "omp": 2816,
      "Ġworst": 2817,
      "Ġproceed": 2818,
      "Ġwrite": 2819,
      "ĠAlb": 2820,
      "Ġseems": 2821,
      "Ġbuy": 2822,
      "ĠTRANIO": 2823,
      "Ġpaper": 2824,
      "ners": 2825,
      "Ġmir": 2826,
      "ĠTimon": 2827,
      "ĠPage": 2828,
      "ONE": 2829,
      "Ġconqu": 2830,
      "Ġsafe": 2831,
      "ĠMark": 2832,
      "Ġpatient": 2833,
      "Ġpromise": 2834,
      "ĠLucius": 2835,
      "Ġpossess": 2836,
      "Ġladies": 2837,
      "Ġhurt": 2838,
      "Ġexcellent": 2839,
      "IEL": 2840,
      "fully": 2841,
      "Ġfetch": 2842,
      "anch": 2843,
      "Ġinv": 2844,
      "ĠCYMBELINE": 2845,
      "ĠHark": 2846,
      "OLS": 2847,
      "Ġmarch": 2848,
      "Ġpresence": 2849,
      "].": 2850,
      "so": 2851,
      "tend": 2852,
      "Ġer": 2853,
      "Ġdied": 2854,
      "Ġthrow": 2855,
      "ĠHea": 2856,
      "ĠPH": 2857,
      "Ġreceive": 2858,
      "Ġvow": 2859,
      "aunt": 2860,
      "Ġarg": 2861,
      "ĠANGELO": 2862,
      "ĠQu": 2863,
      "Ġbreed": 2864,
      "Ġlabour": 2865,
      "ealous": 2866,
      "twas": 2867,
      "Ġtrouble": 2868,
      "Ġteach": 2869,
      "Ġmurd": 2870,
      "Ġdrown": 2871,
      "Ġgates": 2872,
      "ĠHERM": 2873,
      "STARD": 2874,
      "ĠCOSTARD": 2875,
      "ages": 2876,
      "Ġhonourable": 2877,
      "Ġbears": 2878,
      "Ġrememb": 2879,
      "Ġawhile": 2880,
      "Ġdamn": 2881,
      "Ġforgot": 2882,
      "Ġbirth": 2883,
      "Ġorder": 2884,
      "ĠKATHERINA": 2885,
      "Ġjudgment": 2886,
      "gl": 2887,
      "len": 2888,
      "Ġap": 2889,
      "Ġsor": 2890,
      "set": 2891,
      "ĠSil": 2892,
      "leep": 2893,
      "ĠGU": 2894,
      "ĠGentle": 2895,
      "iew": 2896,
      "ago": 2897,
      "Ġleast": 2898,
      "Ġcommend": 2899,
      "Ġfools": 2900,
      "Ġfoolish": 2901,
      "Ġjudge": 2902,
      "Ġbrief": 2903,
      "Ġwisdom": 2904,
      "aves": 2905,
      "iam": 2906,
      "Ġsn": 2907,
      "Ġmatch": 2908,
      "Ġfine": 2909,
      "Ġyear": 2910,
      "staff": 2911,
      "ĠSaint": 2912,
      "ĠCON": 2913,
      "ĠHold": 2914,
      "Ġforsw": 2915,
      "Ġstud": 2916,
      "rust": 2917,
      "cted": 2918,
      "Ġgoing": 2919,
      "othing": 2920,
      "ĠFortune": 2921,
      "ERSIT": 2922,
      "Ġflatter": 2923,
      "ĠTHERSIT": 2924,
      "Ġanything": 2925,
      "ude": 2926,
      "Ġconsent": 2927,
      "ledge": 2928,
      "Ġvalour": 2929,
      "Ġdangerous": 2930,
      "ĠTHERSITES": 2931,
      "VOL": 2932,
      "oke": 2933,
      "under": 2934,
      "ze": 2935,
      "Ġwood": 2936,
      "Ġdull": 2937,
      "ĠTy": 2938,
      "ĠTit": 2939,
      "Ġins": 2940,
      "ĠBet": 2941,
      "ĠMess": 2942,
      "Ġemp": 2943,
      "ourn": 2944,
      "ARINE": 2945,
      "ANO": 2946,
      "rupt": 2947,
      "ilus": 2948,
      "Ġgod": 2949,
      "INGS": 2950,
      "elcome": 2951,
      "arence": 2952,
      "Ġqual": 2953,
      "ARDIN": 2954,
      "Ġwhore": 2955,
      "ĠEdg": 2956,
      "Ġcurse": 2957,
      "Ġvirtuous": 2958,
      "ĠKATHARINE": 2959,
      "ardinal": 2960,
      "VOLIO": 2961,
      "HUM": 2962,
      "via": 2963,
      "ĠALL": 2964,
      "ĠChar": 2965,
      "ĠĠĠĠĠĠĠĠĠĠĠĠĠĠĠĠĠĠĠĠĠĠĠĠĠĠĠĠ": 2966,
      "asion": 2967,
      "ĠGu": 2968,
      "ĠGon": 2969,
      "Ġsole": 2970,
      "Ġsucc": 2971,
      "iff": 2972,
      "ify": 2973,
      "Ġknock": 2974,
      "Ġneigh": 2975,
      "Ġsaf": 2976,
      "ĠClarence": 2977,
      "Ġentertain": 2978,
      "Ġfaults": 2979,
      "ĠMALVOLIO": 2980,
      "ĠPOSTHUM": 2981,
      "ĠPOSTHUMUS": 2982,
      "nown": 2983,
      "Ġtor": 2984,
      "Ġwed": 2985,
      "eng": 2986,
      "Ġhorn": 2987,
      "ingly": 2988,
      "ĠHAST": 2989,
      "ĠHORT": 2990,
      "ĠMOTH": 2991,
      "ility": 2992,
      "ĠHelen": 2993,
      "THUM": 2994,
      "Ġunw": 2995,
      "ISBURY": 2996,
      "Ġperceive": 2997,
      "BERLAND": 2998,
      "Ġquarrel": 2999,
      "ĠHORTENS": 3000,
      "THUMBERLAND": 3001,
      "oly": 3002,
      "ual": 3003,
      "Ġwon": 3004,
      "Ġwent": 3005,
      "ĠGreat": 3006,
      "Ġamong": 3007,
      "Ġoffence": 3008,
      "Ġtroth": 3009,
      "Ġkept": 3010,
      "ĠStay": 3011,
      "ĠSuff": 3012,
      "ĠFalstaff": 3013,
      "ĠSALISBURY": 3014,
      "ĠPompe": 3015,
      "ĠHASTINGS": 3016,
      "Ġfresh": 3017,
      "ĠTalb": 3018,
      "ĠMine": 3019,
      "ĠEarl": 3020,
      "Ġanon": 3021,
      "ĠThink": 3022,
      "iles": 3023,
      "Ġblind": 3024,
      "icul": 3025,
      "Ġjealous": 3026,
      "ĠULY": 3027,
      "osition": 3028,
      "Ġshows": 3029,
      "SSES": 3030,
      "Ġcounter": 3031,
      "Ġopin": 3032,
      "Ġdepart": 3033,
      "ĠNORTHUMBERLAND": 3034,
      "ĠULYSSES": 3035,
      "oot": 3036,
      "twere": 3037,
      "Ġver": 3038,
      "Ġpi": 3039,
      "ĠWOLS": 3040,
      "ĠBes": 3041,
      "Ġforward": 3042,
      "right": 3043,
      "ĠDost": 3044,
      "ĠNothing": 3045,
      "OLY": 3046,
      "Ġenc": 3047,
      "ĠAttend": 3048,
      "Ġquickly": 3049,
      "Ġviol": 3050,
      "Ġbitter": 3051,
      "ĠHeaven": 3052,
      "ĠWOLSEY": 3053,
      "AIN": 3054,
      "AQU": 3055,
      "IE": 3056,
      "pher": 3057,
      "uri": 3058,
      "Ġbab": 3059,
      "llo": 3060,
      "Ġdri": 3061,
      "ĠMe": 3062,
      "ĠFool": 3063,
      "ales": 3064,
      "ĠJAQU": 3065,
      "ume": 3066,
      "Ġuns": 3067,
      "Ġquiet": 3068,
      "Ġoffic": 3069,
      "Ġangry": 3070,
      "Ġtitle": 3071,
      "ĠPompey": 3072,
      "ĠTalbot": 3073,
      "EK": 3074,
      "UEC": 3075,
      "VOST": 3076,
      "ax": 3077,
      "ca": 3078,
      "Ġmasters": 3079,
      "Ġwast": 3080,
      "Ġpains": 3081,
      "ĠWelcome": 3082,
      "Ġmeasure": 3083,
      "ĠFL": 3084,
      "Ġshar": 3085,
      "Ġseal": 3086,
      "Ġherself": 3087,
      "Ġvain": 3088,
      "Ġamb": 3089,
      "emn": 3090,
      "Ġprot": 3091,
      "ĠPROVOST": 3092,
      "Ġfearful": 3093,
      "Ġperform": 3094,
      "ĠAthe": 3095,
      "Ġhumour": 3096,
      "Ġpract": 3097,
      "ĠAGUEC": 3098,
      "HEEK": 3099,
      "ĠParis": 3100,
      "Ġcruel": 3101,
      "ĠFaith": 3102,
      "ĠAGUECHEEK": 3103,
      "CK": 3104,
      "ered": 3105,
      "gin": 3106,
      "oes": 3107,
      "phe": 3108,
      "rid": 3109,
      "Ġtaken": 3110,
      "Ġay": 3111,
      "arch": 3112,
      "arge": 3113,
      "ĠSHY": 3114,
      "ĠCorn": 3115,
      "ĠGree": 3116,
      "Ġshake": 3117,
      "Ġnob": 3118,
      "Ġview": 3119,
      "ĠJew": 3120,
      "Ġround": 3121,
      "LOCK": 3122,
      "ĠCLOTEN": 3123,
      "Ġcarry": 3124,
      "ĠTroilus": 3125,
      "ĠWhom": 3126,
      "ĠEmperor": 3127,
      "Ġdinner": 3128,
      "ĠSHYLOCK": 3129,
      "dge": 3130,
      "zen": 3131,
      "Ġtakes": 3132,
      "Ġbastard": 3133,
      "ĠIago": 3134,
      "Ġda": 3135,
      "Ġpain": 3136,
      "chief": 3137,
      "Ġele": 3138,
      "ided": 3139,
      "ease": 3140,
      "host": 3141,
      "Ġblow": 3142,
      "ĠJove": 3143,
      "ĠVal": 3144,
      "IMO": 3145,
      "ĠAnton": 3146,
      "ĠCassius": 3147,
      "Ġsummer": 3148,
      "ĠBOYET": 3149,
      "AV": 3150,
      "HIMO": 3151,
      "PT": 3152,
      "born": 3153,
      "cil": 3154,
      "cene": 3155,
      "eks": 3156,
      "min": 3157,
      "Ġwid": 3158,
      "ĠIAC": 3159,
      "ĠInto": 3160,
      "Ġfier": 3161,
      "essed": 3162,
      "ĠACH": 3163,
      "ato": 3164,
      "ature": 3165,
      "ĠSe": 3166,
      "edy": 3167,
      "ĠESC": 3168,
      "Ġstar": 3169,
      "Ġmanner": 3170,
      "ALUS": 3171,
      "Ġproof": 3172,
      "Ġrasc": 3173,
      "Ġplague": 3174,
      "Ġjew": 3175,
      "Ġlaid": 3176,
      "Ġarmy": 3177,
      "ILLES": 3178,
      "ĠLUCENTIO": 3179,
      "Ġgreen": 3180,
      "ĠUnless": 3181,
      "Ġsorry": 3182,
      "ĠHORTENSIO": 3183,
      "ĠIACHIMO": 3184,
      "ĠACHILLES": 3185,
      "ĠESCALUS": 3186,
      "RIANA": 3187,
      "loy": 3188,
      "ror": 3189,
      "rate": 3190,
      "Ġ2": 3191,
      "Ġsus": 3192,
      "stance": 3193,
      "ĠBoth": 3194,
      "ĠCardinal": 3195,
      "ĠDou": 3196,
      "ames": 3197,
      "Ġshape": 3198,
      "ĠVer": 3199,
      "ĠUnder": 3200,
      "Ġgrand": 3201,
      "IDIUS": 3202,
      "Ġbrain": 3203,
      "ucking": 3204,
      "Ġdouble": 3205,
      "Ġgolden": 3206,
      "Ġignor": 3207,
      "BOT": 3208,
      "NON": 3209,
      "Ġsort": 3210,
      "Ġsland": 3211,
      "Ġwhi": 3212,
      "itors": 3213,
      "Ġpiece": 3214,
      "ĠSOM": 3215,
      "ley": 3216,
      "irc": 3217,
      "illes": 3218,
      "Ġevil": 3219,
      "rac": 3220,
      "ĠRo": 3221,
      "Ġconcl": 3222,
      "aret": 3223,
      "Ġhonesty": 3224,
      "Ġalive": 3225,
      "ĠWithin": 3226,
      "Ġcalls": 3227,
      "Ġfellows": 3228,
      "airs": 3229,
      "Ġdrum": 3230,
      "Ġdrunk": 3231,
      "Ġjoin": 3232,
      "ĠCONST": 3233,
      "AU": 3234,
      "OUCH": 3235,
      "Ġtry": 3236,
      "Ġfrown": 3237,
      "ĠTw": 3238,
      "ĠTOUCH": 3239,
      "enger": 3240,
      "vey": 3241,
      "Ġinno": 3242,
      "ĠBard": 3243,
      "ĠFie": 3244,
      "ĠFirst": 3245,
      "urst": 3246,
      "STONE": 3247,
      "Ġours": 3248,
      "Ġthence": 3249,
      "ĠVen": 3250,
      "ISTA": 3251,
      "Ġprayers": 3252,
      "Ġcontin": 3253,
      "ĠQUICK": 3254,
      "ĠArt": 3255,
      "Ġtemp": 3256,
      "ĠBAPT": 3257,
      "ĠMoor": 3258,
      "ĠTOUCHSTONE": 3259,
      "ĠQUICKLY": 3260,
      "ĠBAPTISTA": 3261,
      "MED": 3262,
      "beth": 3263,
      "ding": 3264,
      "gy": 3265,
      "Ġmut": 3266,
      "Ġcred": 3267,
      "Ġthro": 3268,
      "ĠSTE": 3269,
      "Ġstop": 3270,
      "ĠDIO": 3271,
      "Ġlibert": 3272,
      "ilty": 3273,
      "though": 3274,
      "Ġblame": 3275,
      "ĠCOMINIUS": 3276,
      "Ġglory": 3277,
      "Ġimport": 3278,
      "Ġinstant": 3279,
      "Ġrequest": 3280,
      "Ġdishon": 3281,
      "ĠBASSANIO": 3282,
      "ĠAntonio": 3283,
      "MEDES": 3284,
      "ĠDIOMEDES": 3285,
      "Scene": 3286,
      "YS": 3287,
      "con": 3288,
      "king": 3289,
      "Ġmethinks": 3290,
      "Ġwert": 3291,
      "Ġfled": 3292,
      "Ġdest": 3293,
      "att": 3294,
      "Ġbeha": 3295,
      "Ġdec": 3296,
      "ARIUS": 3297,
      "Ġconce": 3298,
      "unning": 3299,
      "Ġhearing": 3300,
      "Ġbeggar": 3301,
      "ILLO": 3302,
      "Ġpurse": 3303,
      "ĠMARCUS": 3304,
      "Ġbroke": 3305,
      "Ġdelight": 3306,
      "Ġwalls": 3307,
      "Ġscarce": 3308,
      "ĠCAMILLO": 3309,
      "Ġchurch": 3310,
      "ĠMargaret": 3311,
      "ĠSuffolk": 3312,
      "FOLK": 3313,
      "head": 3314,
      "Ġwine": 3315,
      "orm": 3316,
      "ĠAch": 3317,
      "oman": 3318,
      "Ġgross": 3319,
      "ĠWilt": 3320,
      "Ġmel": 3321,
      "Ġwealth": 3322,
      "Ġstood": 3323,
      "UST": 3324,
      "Ġswift": 3325,
      "ISH": 3326,
      "IANO": 3327,
      "ĠMarcius": 3328,
      "Ġobey": 3329,
      "Ġprisoner": 3330,
      "Ġcondition": 3331,
      "ĠNORFOLK": 3332,
      "ĠMacbeth": 3333,
      "ĠTyb": 3334,
      "OV": 3335,
      "su": 3336,
      "Ġsch": 3337,
      "ished": 3338,
      "Ġfi": 3339,
      "ĠTAL": 3340,
      "Ġthither": 3341,
      "Ġbecause": 3342,
      "Ġinj": 3343,
      "ĠPle": 3344,
      "ĠEre": 3345,
      "rice": 3346,
      "ENES": 3347,
      "Ġdemand": 3348,
      "iful": 3349,
      "Ġshepher": 3350,
      "Ġsav": 3351,
      "cient": 3352,
      "ĠCaptain": 3353,
      "ĠAngel": 3354,
      "Ġhumble": 3355,
      "Ġmonth": 3356,
      "Ġdefend": 3357,
      "Ġmotion": 3358,
      "Ġsuccess": 3359,
      "Ġopinion": 3360,
      "DUFF": 3361,
      "NIA": 3362,
      "ians": 3363,
      "joy": 3364,
      "mn": 3365,
      "mia": 3366,
      "Ġsix": 3367,
      "Ġwounds": 3368,
      "Ġba": 3369,
      "Ġbare": 3370,
      "itiz": 3371,
      "ĠAfter": 3372,
      "ĠServ": 3373,
      "ĠBucking": 3374,
      "ĠMont": 3375,
      "ĠFair": 3376,
      "Ġaside": 3377,
      "ĠThose": 3378,
      "ĠJack": 3379,
      "Ġhadst": 3380,
      "Ġgreater": 3381,
      "ĠPrithee": 3382,
      "ADRIANA": 3383,
      "Ġtrans": 3384,
      "ĠCAIUS": 3385,
      "ĠĠĠĠĠĠĠĠĠĠĠĠĠĠĠĠĠĠĠĠĠĠĠĠĠĠĠĠĠ": 3386,
      "Ġbestow": 3387,
      "ĠMACDUFF": 3388,
      "ĠBrit": 3389,
      "Ġtrain": 3390,
      "Ġdrawn": 3391,
      "Ġtrumpet": 3392,
      "Ġpubl": 3393,
      "Ġstruck": 3394,
      "ĠTALBOT": 3395,
      "ĠAngelo": 3396,
      "ĠBuckingham": 3397,
      "IX": 3398,
      "MIAN": 3399,
      "ker": 3400,
      "mble": 3401,
      "Ġes": 3402,
      "Ġtear": 3403,
      "Ġav": 3404,
      "Ġbreat": 3405,
      "Ġcatch": 3406,
      "Ġcirc": 3407,
      "Ġheld": 3408,
      "Ġgent": 3409,
      "ĠBEL": 3410,
      "ĠHU": 3411,
      "Ġliv": 3412,
      "ERSET": 3413,
      "icked": 3414,
      "Ġfolly": 3415,
      "Ġrogue": 3416,
      "Ġwits": 3417,
      "ATIANO": 3418,
      "ĠLORDS": 3419,
      "uthor": 3420,
      "Ġstreet": 3421,
      "Ġmonst": 3422,
      "ĠGRATIANO": 3423,
      "Ġcolour": 3424,
      "Ġseveral": 3425,
      "ĠIndeed": 3426,
      "ĠSOMERSET": 3427,
      "broke": 3428,
      "iest": 3429,
      "sper": 3430,
      "Ġbot": 3431,
      "Ġcre": 3432,
      "Ġlist": 3433,
      "Ġpet": 3434,
      "ved": 3435,
      "ĠMen": 3436,
      "Ġeld": 3437,
      "ĠPIS": 3438,
      "ĠEX": 3439,
      "Ġur": 3440,
      "ĠLest": 3441,
      "ĠGre": 3442,
      "Ġref": 3443,
      "Ġkneel": 3444,
      "Ġvan": 3445,
      "Ġunf": 3446,
      "ĠWithout": 3447,
      "Ġchast": 3448,
      "Ġleg": 3449,
      "ĠCHARMIAN": 3450,
      "phin": 3451,
      "They": 3452,
      "Ġbright": 3453,
      "Ġwinter": 3454,
      "ĠRosal": 3455,
      "comes": 3456,
      "orthy": 3457,
      "ĠMURDER": 3458,
      "ference": 3459,
      "Ġsharp": 3460,
      "ĠPISANIO": 3461,
      "ged": 3462,
      "mbl": 3463,
      "ts": 3464,
      "read": 3465,
      "Ġcunning": 3466,
      "ĠAp": 3467,
      "Ġpure": 3468,
      "ĠFo": 3469,
      "ĠFLU": 3470,
      "Ġdeare": 3471,
      "usion": 3472,
      "Ġfaire": 3473,
      "Ġblessed": 3474,
      "ĠĠĠĠĠĠĠĠĠĠĠĠĠĠĠĠĠĠĠĠĠĠĠĠĠĠĠĠĠĠĠĠĠĠĠĠĠĠĠĠĠĠĠĠĠĠĠĠĠĠĠĠĠĠĠĠ": 3475,
      "Ġgreatness": 3476,
      "Ġdeserve": 3477,
      "ELLEN": 3478,
      "Ġprecious": 3479,
      "ĠWilliam": 3480,
      "Ġwait": 3481,
      "ĠAchilles": 3482,
      "ĠBELARIUS": 3483,
      "ĠFLUELLEN": 3484,
      "REY": 3485,
      "With": 3486,
      "cer": 3487,
      "ov": 3488,
      "Ġaught": 3489,
      "Ġmid": 3490,
      "Ġbones": 3491,
      "Ġcamp": 3492,
      "vell": 3493,
      "Ġmere": 3494,
      "Ġequ": 3495,
      "entine": 3496,
      "amb": 3497,
      "ellow": 3498,
      "Ġknowledge": 3499,
      "ical": 3500,
      "Ġsirrah": 3501,
      "ission": 3502,
      "Ġremain": 3503,
      "Ġendure": 3504,
      "ĠNorth": 3505,
      "ĠBring": 3506,
      "Ġtrib": 3507,
      "Ġcheek": 3508,
      "Ġpriest": 3509,
      "Ġborne": 3510,
      "Ġdispatch": 3511,
      "Ġshadow": 3512,
      "Re": 3513,
      "iol": 3514,
      "more": 3515,
      "Ġtaste": 3516,
      "reed": 3517,
      "Ġben": 3518,
      "orous": 3519,
      "Ġlend": 3520,
      "Ġthird": 3521,
      "ĠCAL": 3522,
      "ĠLanc": 3523,
      "ways": 3524,
      "Ġwherefore": 3525,
      "ADE": 3526,
      "ĠARIEL": 3527,
      "ANDER": 3528,
      "Ġrude": 3529,
      "Ġboys": 3530,
      "Ġobedi": 3531,
      "ĠHOSTESS": 3532,
      "Ġexcuse": 3533,
      "Ġwretched": 3534,
      "Ġforbid": 3535,
      "LIFFORD": 3536,
      "ISHOP": 3537,
      "ĠLancaster": 3538,
      "EUS": 3539,
      "FORD": 3540,
      "LES": 3541,
      "ug": 3542,
      "Ġwicked": 3543,
      "Ġloud": 3544,
      "Ġpol": 3545,
      "Ġpun": 3546,
      "ane": 3547,
      "ĠCLIFFORD": 3548,
      "ĠEn": 3549,
      "ident": 3550,
      "ĠDau": 3551,
      "Ġdeg": 3552,
      "Ġancient": 3553,
      "hys": 3554,
      "Ġfears": 3555,
      "Ġrain": 3556,
      "Ġcompl": 3557,
      "Ġtongues": 3558,
      "Ġgreet": 3559,
      "ize": 3560,
      "ĠPoor": 3561,
      "Ġterms": 3562,
      "Ġprincely": 3563,
      "Ġvisit": 3564,
      "Ġsafety": 3565,
      "ĠSTEPH": 3566,
      "ĠDauphin": 3567,
      "MOR": 3568,
      "Ġfru": 3569,
      "Ġfig": 3570,
      "ester": 3571,
      "Ġnurse": 3572,
      "ĠAUT": 3573,
      "Ġheels": 3574,
      "ĠBer": 3575,
      "ĠHence": 3576,
      "Ġyourselves": 3577,
      "ERIUS": 3578,
      "rain": 3579,
      "ilia": 3580,
      "Ġneck": 3581,
      "Ġnecess": 3582,
      "Ġgoodly": 3583,
      "Ġconj": 3584,
      "Ġgovern": 3585,
      "ĠJUST": 3586,
      "Ġclaim": 3587,
      "IDERIUS": 3588,
      "BERT": 3589,
      "Ġholds": 3590,
      "Ġcourtes": 3591,
      "UMIO": 3592,
      "Ġwrongs": 3593,
      "ĠGRUMIO": 3594,
      "ĠROSALINE": 3595,
      "Ġembrace": 3596,
      "ĠSILVIA": 3597,
      "ĠChristian": 3598,
      "Ġbleed": 3599,
      "Ġoccasion": 3600,
      "ĠGUIDERIUS": 3601,
      "OLYCUS": 3602,
      "Ġshepherd": 3603,
      "itizens": 3604,
      "ĠSTEPHANO": 3605,
      "ĠAUTOLYCUS": 3606,
      "CA": 3607,
      "mon": 3608,
      "pos": 3609,
      "sh": 3610,
      "ua": 3611,
      "Ġauthor": 3612,
      "Ġsen": 3613,
      "Ġsong": 3614,
      "Ġdies": 3615,
      "Ġlarge": 3616,
      "ĠAAR": 3617,
      "cend": 3618,
      "Ġmem": 3619,
      "ĠFran": 3620,
      "ĠPO": 3621,
      "ĠLondon": 3622,
      "ĠGet": 3623,
      "Ġmanners": 3624,
      "icious": 3625,
      "Ġprinces": 3626,
      "Ġrough": 3627,
      "ĠVOL": 3628,
      "Ġshouldst": 3629,
      "Ġquite": 3630,
      "ĠUnto": 3631,
      "ustom": 3632,
      "perate": 3633,
      "Ġbrothers": 3634,
      "Ġimm": 3635,
      "Ġadvantage": 3636,
      "ECTOR": 3637,
      "Ġgrows": 3638,
      "Ġforest": 3639,
      "Ġdrop": 3640,
      "Ġclear": 3641,
      "Ġprivate": 3642,
      "ronic": 3643,
      "chance": 3644,
      "ĠPHIL": 3645,
      "ĠJAQUES": 3646,
      "Ġwidow": 3647,
      "ĠEXETER": 3648,
      "ĠMURDERER": 3649,
      "ĠAARON": 3650,
      "cul": 3651,
      "iance": 3652,
      "Ġir": 3653,
      "here": 3654,
      "Ġmur": 3655,
      "Ġbrow": 3656,
      "ora": 3657,
      "Ġowe": 3658,
      "Ġdue": 3659,
      "ĠTime": 3660,
      "Ġhor": 3661,
      "Ġpin": 3662,
      "Ġbend": 3663,
      "ĠSal": 3664,
      "ĠCould": 3665,
      "ĠMort": 3666,
      "ĠPet": 3667,
      "Ġweary": 3668,
      "ĠLea": 3669,
      "Ġspend": 3670,
      "Ġfail": 3671,
      "Ġvir": 3672,
      "Ġdism": 3673,
      "Ġfoes": 3674,
      "Ġwrath": 3675,
      "Ġintend": 3676,
      "Ġglass": 3677,
      "Ġsmile": 3678,
      "Ġcheeks": 3679,
      "Ġchoice": 3680,
      "Ġliberty": 3681,
      "Reads": 3682,
      "hysic": 3683,
      "ĠVOLUM": 3684,
      "LEN": 3685,
      "eat": 3686,
      "Ġbount": 3687,
      "orge": 3688,
      "Ġdwell": 3689,
      "Ġcorn": 3690,
      "Ġlest": 3691,
      "Ġthreat": 3692,
      "Ġheat": 3693,
      "ĠWhile": 3694,
      "ĠSom": 3695,
      "ĠSLEN": 3696,
      "ĠCADE": 3697,
      "ĠHECTOR": 3698,
      "utation": 3699,
      "Ġmend": 3700,
      "Ġformer": 3701,
      "ĠFord": 3702,
      "Ġweap": 3703,
      "Ġrevol": 3704,
      "Ġdebt": 3705,
      "ĠRi": 3706,
      "ĠRem": 3707,
      "ĠKeep": 3708,
      "olph": 3709,
      "Ġexpect": 3710,
      "Ġlegs": 3711,
      "ĠSirrah": 3712,
      "Ġappare": 3713,
      "Ġpersu": 3714,
      "ĠPoins": 3715,
      "Ġcreature": 3716,
      "Ġmalice": 3717,
      "ancholy": 3718,
      "Ġemploy": 3719,
      "ĠJUSTICE": 3720,
      "ĠSLENDER": 3721,
      "cus": 3722,
      "rim": 3723,
      "erset": 3724,
      "Ġce": 3725,
      "Ġpot": 3726,
      "ĠCARDIN": 3727,
      "ĠMethinks": 3728,
      "edick": 3729,
      "Ġsteel": 3730,
      "ĠGA": 3731,
      "Ġdeal": 3732,
      "Ġwash": 3733,
      "Ġusur": 3734,
      "Ġrans": 3735,
      "Ġunp": 3736,
      "unes": 3737,
      "Ġdesires": 3738,
      "Ġleaves": 3739,
      "Ġparticul": 3740,
      "EMIO": 3741,
      "ocks": 3742,
      "Ġcontr": 3743,
      "ĠAnne": 3744,
      "acle": 3745,
      "Ġguilty": 3746,
      "Ġmajesty": 3747,
      "Ġmonster": 3748,
      "ĠGREMIO": 3749,
      "ULINA": 3750,
      "Ġthrice": 3751,
      "Ġutter": 3752,
      "ĠBardolph": 3753,
      "Ġmelancholy": 3754,
      "ĠFollow": 3755,
      "ĠCARDINAL": 3756,
      "'-": 3757,
      "afe": 3758,
      "ĠTower": 3759,
      "Ġthief": 3760,
      "anio": 3761,
      "ances": 3762,
      "Ġga": 3763,
      "ĠBol": 3764,
      "ĠCast": 3765,
      "ays": 3766,
      "Ġmeat": 3767,
      "ĠMade": 3768,
      "ĠMONT": 3769,
      "ĠPOL": 3770,
      "ĠLo": 3771,
      "ERN": 3772,
      "Ġstain": 3773,
      "ract": 3774,
      "ander": 3775,
      "Ġamaz": 3776,
      "Ġblows": 3777,
      "Ġleis": 3778,
      "EMNON": 3779,
      "Ġcommit": 3780,
      "Ġkeeps": 3781,
      "ĠPAULINA": 3782,
      "AMEMNON": 3783,
      "Ġmaiden": 3784,
      "ĠJuliet": 3785,
      "Ġwanton": 3786,
      "Ġoaths": 3787,
      "ĠAGAMEMNON": 3788,
      "chant": 3789,
      "Ġsimple": 3790,
      "IXENES": 3791,
      "Within": 3792,
      "ĠSomerset": 3793,
      "ĠPOLIXENES": 3794,
      "dem": 3795,
      "ounter": 3796,
      "Ġsens": 3797,
      "Ġfie": 3798,
      "Ġfaint": 3799,
      "Ġow": 3800,
      "Ġdance": 3801,
      "Ġcat": 3802,
      "Ġhunt": 3803,
      "Ġphysic": 3804,
      "ingbroke": 3805,
      "Ġmed": 3806,
      "ĠFAB": 3807,
      "ĠPardon": 3808,
      "ĠĠĠĠĠĠĠĠĠĠĠĠĠĠĠĠĠĠĠĠĠĠĠĠĠĠĠĠĠĠ": 3809,
      "Ġsto": 3810,
      "Ġstory": 3811,
      "Ġstars": 3812,
      "Ġnose": 3813,
      "Ġspent": 3814,
      "ards": 3815,
      "Ġmadness": 3816,
      "Ġsail": 3817,
      "Ġabro": 3818,
      "Ġroom": 3819,
      "Ġhonours": 3820,
      "Ġways": 3821,
      "Ġfalls": 3822,
      "Ġswords": 3823,
      "ĠCHARLES": 3824,
      "Ġthrone": 3825,
      "Ġapproach": 3826,
      "Ġargument": 3827,
      "ĠVOLUMNIA": 3828,
      "ĠBolingbroke": 3829,
      "ĠFABIAN": 3830,
      "AX": 3831,
      "JAX": 3832,
      "oc": 3833,
      "og": 3834,
      "vail": 3835,
      "Ġwond": 3836,
      "Ġfame": 3837,
      "Ġfew": 3838,
      "Ġdry": 3839,
      "Ġnay": 3840,
      "Ġgain": 3841,
      "ĠWor": 3842,
      "ĠBIAN": 3843,
      "ĠOff": 3844,
      "ĠPUC": 3845,
      "Ġstuff": 3846,
      "ified": 3847,
      "Ġvent": 3848,
      "ppy": 3849,
      "Ġproper": 3850,
      "Ġchain": 3851,
      "Ġbetray": 3852,
      "Ġwherein": 3853,
      "Ġrob": 3854,
      "Ġrose": 3855,
      "ĠWherein": 3856,
      "Ġperfect": 3857,
      "Ġrare": 3858,
      "ELLE": 3859,
      "Ġcourage": 3860,
      "ĠQUIN": 3861,
      "orses": 3862,
      "ĠBenedick": 3863,
      "ĠEdmund": 3864,
      "Ġidle": 3865,
      "Ġtyrant": 3866,
      "Ġfinger": 3867,
      "Ġmurder": 3868,
      "ĠValentine": 3869,
      "Ġmonstrous": 3870,
      "ĠBIANCA": 3871,
      "ĠPUCELLE": 3872,
      "London": 3873,
      "ees": 3874,
      "ient": 3875,
      "sp": 3876,
      "wise": 3877,
      "woman": 3878,
      "Ġed": 3879,
      "Ġaid": 3880,
      "Ġsli": 3881,
      "Ġship": 3882,
      "Ġwag": 3883,
      "oral": 3884,
      "Ġfought": 3885,
      "Ġod": 3886,
      "Ġcost": 3887,
      "Ġthunder": 3888,
      "aring": 3889,
      "Ġheed": 3890,
      "Ġgir": 3891,
      "ĠST": 3892,
      "ĠPut": 3893,
      "ourse": 3894,
      "ifford": 3895,
      "Ġknee": 3896,
      "Ġvows": 3897,
      "Ġshore": 3898,
      "THE": 3899,
      "Ġrise": 3900,
      "Ġunless": 3901,
      "Ġmayst": 3902,
      "Ġproclaim": 3903,
      "Ġchall": 3904,
      "Ġdesert": 3905,
      "ĠWherefore": 3906,
      "Ġimag": 3907,
      "ILLE": 3908,
      "ĠClifford": 3909,
      "Ġsmell": 3910,
      "Ġfollows": 3911,
      "Ġassur": 3912,
      "IPP": 3913,
      "Ġaffairs": 3914,
      "ĠDesdem": 3915,
      "Ġeasy": 3916,
      "Ġsolemn": 3917,
      "Ġprotest": 3918,
      "Ġfiend": 3919,
      "Ġpublic": 3920,
      "Ġleisure": 3921,
      "der": 3922,
      "eous": 3923,
      "vish": 3924,
      "rehe": 3925,
      "Ġbaw": 3926,
      "ising": 3927,
      "Ġfond": 3928,
      "ĠAJAX": 3929,
      "ĠBid": 3930,
      "Ġstol": 3931,
      "Ġdoom": 3932,
      "ONS": 3933,
      "Ġseven": 3934,
      "Ġlover": 3935,
      "Ġspring": 3936,
      "Ġenjoy": 3937,
      "URN": 3938,
      "Ġearn": 3939,
      "Ġcompan": 3940,
      "ĠStill": 3941,
      "Ġrepent": 3942,
      "ĠCHIE": 3943,
      "Ġsmo": 3944,
      "Ġreasons": 3945,
      "Ġundert": 3946,
      "ĠPercy": 3947,
      "Ġtrumpets": 3948,
      "Ġneighbour": 3949,
      "ĠTybalt": 3950,
      "Ġransom": 3951,
      "ĠCHIEF": 3952,
      "fer": 3953,
      "na": 3954,
      "uce": 3955,
      "ouds": 3956,
      "Ġbas": 3957,
      "Ġfood": 3958,
      "ĠTAM": 3959,
      "Ġport": 3960,
      "ĠBass": 3961,
      "ĠHang": 3962,
      "Ġev": 3963,
      "ĠPy": 3964,
      "ĠEgy": 3965,
      "Ġweight": 3966,
      "Ġstone": 3967,
      "Ġkins": 3968,
      "Ġfoe": 3969,
      "wards": 3970,
      "Ġadm": 3971,
      "ĠMARC": 3972,
      "Ġsilver": 3973,
      "Ġsilence": 3974,
      "Ġcounterfeit": 3975,
      "ĠAthens": 3976,
      "ĠPlease": 3977,
      "Ġcourtesy": 3978,
      "Ġabroad": 3979,
      "ĠEgypt": 3980,
      "';": 3981,
      "CU": 3982,
      "MAIN": 3983,
      "Th": 3984,
      "jax": 3985,
      "son": 3986,
      "Ġfain": 3987,
      "Ġfury": 3988,
      "Ġcure": 3989,
      "Ġcried": 3990,
      "ĠAjax": 3991,
      "Ġpaid": 3992,
      "ĠSen": 3993,
      "ĠSomet": 3994,
      "Ġmeant": 3995,
      "Ġweed": 3996,
      "Ġweigh": 3997,
      "ĠLYS": 3998,
      "ENCH": 3999,
      "ORA": 4000,
      "que": 4001,
      "LOT": 4002,
      "Ġquoth": 4003,
      "Ġheav": 4004,
      "Ġadieu": 4005,
      "Ġwitch": 4006,
      "ĠDUMAIN": 4007,
      "angu": 4008,
      "Ġconsider": 4009,
      "Ġassure": 4010,
      "ĠFRENCH": 4011,
      "Ġawake": 4012,
      "ĠLaer": 4013,
      "Ġhung": 4014,
      "Ġexecution": 4015,
      "Ġremembrance": 4016,
      "Ġforsworn": 4017,
      "ĠAttendants": 4018,
      "ĠHUBERT": 4019,
      "Ġvirgin": 4020,
      "ĠDesdemona": 4021,
      "ĠTAMORA": 4022,
      "ĠLYSANDER": 4023,
      "DELLO": 4024,
      "He": 4025,
      "OF": 4026,
      "VIR": 4027,
      "kin": 4028,
      "Ġtable": 4029,
      "Ġsqu": 4030,
      "Ġsau": 4031,
      "Ġbig": 4032,
      "Ġfle": 4033,
      "Ġdust": 4034,
      "Ġdign": 4035,
      "Ġniece": 4036,
      "Ġtop": 4037,
      "Ġtomb": 4038,
      "ĠHal": 4039,
      "ĠEL": 4040,
      "Ġdoing": 4041,
      "Ġdoors": 4042,
      "Ġspite": 4043,
      "ump": 4044,
      "Ġplot": 4045,
      "aked": 4046,
      "Ġhonor": 4047,
      "IBAN": 4048,
      "Ġfriar": 4049,
      "Ġabuse": 4050,
      "Ġtwice": 4051,
      "agger": 4052,
      "IONDELLO": 4053,
      "ĠARVIR": 4054,
      "ĠOnly": 4055,
      "AGUS": 4056,
      "Ġbroken": 4057,
      "Ġvict": 4058,
      "Ġcorrupt": 4059,
      "umberland": 4060,
      "Ġduc": 4061,
      "ĠCoriol": 4062,
      "Ġrank": 4063,
      "ointed": 4064,
      "Ġconquer": 4065,
      "ĠFLOR": 4066,
      "ĠTwo": 4067,
      "ĠARVIRAGUS": 4068,
      "FIDIUS": 4069,
      "dain": 4070,
      "uch": 4071,
      "yond": 4072,
      "Ġtune": 4073,
      "oun": 4074,
      "incess": 4075,
      "Ġwench": 4076,
      "Ġfee": 4077,
      "itude": 4078,
      "Ġline": 4079,
      "omach": 4080,
      "Ġgate": 4081,
      "ĠSIM": 4082,
      "ĠBIONDELLO": 4083,
      "ĠĠĠĠĠĠĠĠĠĠĠĠĠĠĠĠĠĠĠĠĠĠĠĠĠĠĠĠĠĠĠ": 4084,
      "ĠĠĠĠĠĠĠĠĠĠĠĠĠĠĠĠĠĠĠĠĠĠĠĠĠĠĠĠĠĠĠĠĠ": 4085,
      "Ġste": 4086,
      "Ġstart": 4087,
      "ĠGe": 4088,
      "INUS": 4089,
      "ARL": 4090,
      "Ġanger": 4091,
      "Ġsheep": 4092,
      "Ġrot": 4093,
      "OLOF": 4094,
      "ĠĠĠĠĠĠĠĠĠĠĠĠĠĠĠĠĠĠĠĠĠĠĠĠĠĠĠĠĠĠĠĠĠĠĠ": 4095
    },
    "merges": [
      [
        "Ġ",
        "Ġ"
      ],
      [
        "č",
        "Ċ"
      ],
      [
        "Ġ",
        "t"
      ],
      [
        "h",
        "e"
      ],
      [
        "ĠĠ",
        "Ġ"
      ],
      [
        "Ġ",
        "a"
      ],
      [
        "ĠĠ",
        "ĠĠ"
      ],
      [
        "o",
        "u"
      ],
      [
        "Ġ",
        "s"
      ],
      [
        "i",
        "n"
      ],
      [
        "Ġ",
        "m"
      ],
      [
        "Ġ",
        "w"
      ],
      [
        "r",
        "e"
      ],
      [
        "h",
        "a"
      ],
      [
        "n",
        "d"
      ],
      [
        "Ġt",
        "he"
      ],
      [
        "Ġ",
        "b"
      ],
      [
        "i",
        "s"
      ],
      [
        "e",
        "r"
      ],
      [
        "o",
        "r"
      ],
      [
        "Ġ",
        "I"
      ],
      [
        "Ġ",
        "f"
      ],
      [
        "l",
        "l"
      ],
      [
        "Ġ",
        "o"
      ],
      [
        "i",
        "t"
      ],
      [
        "ĠĠĠĠ",
        "ĠĠĠĠ"
      ],
      [
        "Ġ",
        "d"
      ],
      [
        "Ġ",
        "c"
      ],
      [
        "e",
        "s"
      ],
      [
        "Ġ",
        "l"
      ],
      [
        "o",
        "n"
      ],
      [
        "Ġ",
        "y"
      ],
      [
        "Ġ",
        "n"
      ],
      [
        "Ġ",
        "T"
      ],
      [
        "Ġt",
        "h"
      ],
      [
        "e",
        "n"
      ],
      [
        "a",
        "r"
      ],
      [
        "Ġ",
        "h"
      ],
      [
        "Ġ",
        "A"
      ],
      [
        "Ġy",
        "ou"
      ],
      [
        "Ġ",
        "p"
      ],
      [
        "Ġt",
        "o"
      ],
      [
        "Ġa",
        "nd"
      ],
      [
        "ha",
        "t"
      ],
      [
        "Ġo",
        "f"
      ],
      [
        "Ġ",
        "he"
      ],
      [
        "o",
        "t"
      ],
      [
        "a",
        "n"
      ],
      [
        "v",
        "e"
      ],
      [
        "in",
        "g"
      ],
      [
        "o",
        "w"
      ],
      [
        "o",
        "m"
      ],
      [
        "Ġ",
        "g"
      ],
      [
        "s",
        "t"
      ],
      [
        "Ġ",
        "W"
      ],
      [
        "a",
        "t"
      ],
      [
        "Ġb",
        "e"
      ],
      [
        "Ġ",
        "in"
      ],
      [
        "s",
        "e"
      ],
      [
        "Ġ",
        "S"
      ],
      [
        "c",
        "e"
      ],
      [
        "Ġ",
        "ha"
      ],
      [
        "Ġm",
        "y"
      ],
      [
        "e",
        "t"
      ],
      [
        "Ġ",
        "B"
      ],
      [
        "Ġ",
        "C"
      ],
      [
        "l",
        "e"
      ],
      [
        "a",
        "y"
      ],
      [
        "l",
        "d"
      ],
      [
        "Ġ",
        "H"
      ],
      [
        "u",
        "t"
      ],
      [
        "Ġm",
        "e"
      ],
      [
        "Ġ",
        "M"
      ],
      [
        "it",
        "h"
      ],
      [
        "i",
        "r"
      ],
      [
        "i",
        "m"
      ],
      [
        "Ġ",
        "O"
      ],
      [
        "'",
        "d"
      ],
      [
        "c",
        "h"
      ],
      [
        "Ġn",
        "ot"
      ],
      [
        "e",
        "d"
      ],
      [
        "Ġ",
        "is"
      ],
      [
        "g",
        "h"
      ],
      [
        "'",
        "s"
      ],
      [
        "i",
        "ll"
      ],
      [
        "Ġt",
        "hat"
      ],
      [
        "Ġ",
        "e"
      ],
      [
        "Ġf",
        "or"
      ],
      [
        "o",
        "o"
      ],
      [
        "Ġ",
        "F"
      ],
      [
        "Ġ",
        "P"
      ],
      [
        "ĠĠĠĠĠĠĠĠ",
        "ĠĠĠĠĠĠĠĠ"
      ],
      [
        "k",
        "e"
      ],
      [
        "Ġ",
        "E"
      ],
      [
        "ou",
        "r"
      ],
      [
        "ĠA",
        "nd"
      ],
      [
        "Ġ",
        "u"
      ],
      [
        "Ġw",
        "ith"
      ],
      [
        "Ġw",
        "e"
      ],
      [
        "Ġ",
        "L"
      ],
      [
        "en",
        "t"
      ],
      [
        "Ġ",
        "it"
      ],
      [
        "a",
        "d"
      ],
      [
        "a",
        "s"
      ],
      [
        "Ġyou",
        "r"
      ],
      [
        "i",
        "d"
      ],
      [
        "ĠT",
        "he"
      ],
      [
        "a",
        "l"
      ],
      [
        "t",
        "er"
      ],
      [
        "he",
        "r"
      ],
      [
        "Ġh",
        "is"
      ],
      [
        "E",
        "R"
      ],
      [
        "Ġs",
        "t"
      ],
      [
        "r",
        "i"
      ],
      [
        "Ġ",
        "G"
      ],
      [
        "Ġth",
        "ou"
      ],
      [
        "r",
        "a"
      ],
      [
        "Ġ",
        "D"
      ],
      [
        "Ġh",
        "im"
      ],
      [
        "gh",
        "t"
      ],
      [
        "Ġth",
        "is"
      ],
      [
        "Ġ",
        "re"
      ],
      [
        "Ġha",
        "ve"
      ],
      [
        "om",
        "e"
      ],
      [
        "or",
        "d"
      ],
      [
        "l",
        "y"
      ],
      [
        "Ġs",
        "o"
      ],
      [
        "u",
        "r"
      ],
      [
        "Ġo",
        "n"
      ],
      [
        "Ġl",
        "i"
      ],
      [
        "Ġa",
        "s"
      ],
      [
        "Ġ",
        "k"
      ],
      [
        "U",
        "S"
      ],
      [
        "v",
        "er"
      ],
      [
        "E",
        "N"
      ],
      [
        "Ġ",
        "N"
      ],
      [
        "o",
        "re"
      ],
      [
        "ou",
        "ld"
      ],
      [
        "I",
        "N"
      ],
      [
        "Ġd",
        "e"
      ],
      [
        "a",
        "in"
      ],
      [
        "Ġd",
        "o"
      ],
      [
        "Ġw",
        "ill"
      ],
      [
        "r",
        "o"
      ],
      [
        "a",
        "m"
      ],
      [
        "oo",
        "d"
      ],
      [
        "u",
        "s"
      ],
      [
        "h",
        "i"
      ],
      [
        "c",
        "k"
      ],
      [
        "E",
        "S"
      ],
      [
        "Ġs",
        "ha"
      ],
      [
        "O",
        "N"
      ],
      [
        "Ġs",
        "e"
      ],
      [
        "i",
        "on"
      ],
      [
        "A",
        "R"
      ],
      [
        "es",
        "s"
      ],
      [
        "es",
        "t"
      ],
      [
        "Ġ",
        "Y"
      ],
      [
        "A",
        "N"
      ],
      [
        "e",
        "a"
      ],
      [
        "Ġhe",
        "r"
      ],
      [
        "Ġa",
        "n"
      ],
      [
        "Ġth",
        "y"
      ],
      [
        "Ġ",
        "'"
      ],
      [
        "Ġ",
        "R"
      ],
      [
        "Ġl",
        "o"
      ],
      [
        "Ġn",
        "o"
      ],
      [
        "Ġb",
        "ut"
      ],
      [
        "O",
        "R"
      ],
      [
        "n",
        "t"
      ],
      [
        "g",
        "e"
      ],
      [
        "Ġs",
        "u"
      ],
      [
        "a",
        "nd"
      ],
      [
        "Ġ",
        "K"
      ],
      [
        "Ġa",
        "ll"
      ],
      [
        "ĠT",
        "h"
      ],
      [
        "r",
        "u"
      ],
      [
        "i",
        "l"
      ],
      [
        "t",
        "h"
      ],
      [
        "a",
        "ke"
      ],
      [
        "i",
        "f"
      ],
      [
        "e",
        "ar"
      ],
      [
        "Ġs",
        "p"
      ],
      [
        "e",
        "ll"
      ],
      [
        "Ġf",
        "a"
      ],
      [
        "ĠT",
        "o"
      ],
      [
        "c",
        "t"
      ],
      [
        "Ġk",
        "n"
      ],
      [
        "Ġsha",
        "ll"
      ],
      [
        "Ġthe",
        "e"
      ],
      [
        "Ġ",
        "v"
      ],
      [
        "Ġa",
        "re"
      ],
      [
        "i",
        "ght"
      ],
      [
        "ha",
        "n"
      ],
      [
        "Ġs",
        "h"
      ],
      [
        "r",
        "om"
      ],
      [
        "ĠT",
        "hat"
      ],
      [
        "S",
        "T"
      ],
      [
        "a",
        "st"
      ],
      [
        "Ġb",
        "y"
      ],
      [
        "Ġ",
        "our"
      ],
      [
        "ar",
        "d"
      ],
      [
        "Ġm",
        "an"
      ],
      [
        "h",
        "o"
      ],
      [
        "Ġn",
        "e"
      ],
      [
        "ar",
        "t"
      ],
      [
        "Ġa",
        "t"
      ],
      [
        "e",
        "nd"
      ],
      [
        "in",
        "e"
      ],
      [
        "Ġa",
        "m"
      ],
      [
        "an",
        "t"
      ],
      [
        "ĠB",
        "ut"
      ],
      [
        "ou",
        "s"
      ],
      [
        "ĠH",
        "e"
      ],
      [
        "Ġu",
        "p"
      ],
      [
        "Ġc",
        "om"
      ],
      [
        "ĠW",
        "hat"
      ],
      [
        "Ġm",
        "u"
      ],
      [
        "L",
        "L"
      ],
      [
        "Ġl",
        "ord"
      ],
      [
        "ou",
        "t"
      ],
      [
        "se",
        "l"
      ],
      [
        "Ġg",
        "ood"
      ],
      [
        "Ġc",
        "on"
      ],
      [
        "'",
        "ll"
      ],
      [
        "q",
        "u"
      ],
      [
        "on",
        "e"
      ],
      [
        "i",
        "e"
      ],
      [
        "re",
        "s"
      ],
      [
        "Ġw",
        "he"
      ],
      [
        "u",
        "l"
      ],
      [
        "in",
        "d"
      ],
      [
        "Ġg",
        "o"
      ],
      [
        "i",
        "ve"
      ],
      [
        "hi",
        "ch"
      ],
      [
        "e",
        "m"
      ],
      [
        "Ġw",
        "hat"
      ],
      [
        "Ġf",
        "rom"
      ],
      [
        "on",
        "g"
      ],
      [
        "b",
        "le"
      ],
      [
        "r",
        "y"
      ],
      [
        "er",
        "s"
      ],
      [
        "v",
        "en"
      ],
      [
        "Ġkn",
        "ow"
      ],
      [
        "n",
        "ter"
      ],
      [
        "Ġthe",
        "m"
      ],
      [
        "Ġs",
        "he"
      ],
      [
        "Ġlo",
        "ve"
      ],
      [
        "r",
        "ow"
      ],
      [
        "Ġw",
        "ould"
      ],
      [
        "Ġs",
        "w"
      ],
      [
        "a",
        "u"
      ],
      [
        "Ġw",
        "as"
      ],
      [
        "I",
        "O"
      ],
      [
        "Ġb",
        "l"
      ],
      [
        "ot",
        "h"
      ],
      [
        "T",
        "H"
      ],
      [
        "Ġm",
        "ore"
      ],
      [
        "I",
        "C"
      ],
      [
        "i",
        "c"
      ],
      [
        "A",
        "L"
      ],
      [
        "Ġ",
        "["
      ],
      [
        "Ġp",
        "r"
      ],
      [
        "Ġc",
        "an"
      ],
      [
        "Ġthe",
        "re"
      ],
      [
        "at",
        "h"
      ],
      [
        "Ġ",
        "hat"
      ],
      [
        "ĠF",
        "or"
      ],
      [
        "p",
        "p"
      ],
      [
        "Ġn",
        "ow"
      ],
      [
        "ĠĠ",
        "ĠĠĠ"
      ],
      [
        "ĠE",
        "x"
      ],
      [
        "Ġthe",
        "ir"
      ],
      [
        "a",
        "ll"
      ],
      [
        "e",
        "p"
      ],
      [
        "o",
        "st"
      ],
      [
        "Ġ",
        "or"
      ],
      [
        "Ġthe",
        "y"
      ],
      [
        "f",
        "e"
      ],
      [
        "o",
        "l"
      ],
      [
        "Ġw",
        "or"
      ],
      [
        "Ġt",
        "han"
      ],
      [
        "U",
        "C"
      ],
      [
        "Ġa",
        "r"
      ],
      [
        "Ġs",
        "ir"
      ],
      [
        "sel",
        "f"
      ],
      [
        "u",
        "re"
      ],
      [
        "at",
        "e"
      ],
      [
        "Ġ",
        "if"
      ],
      [
        "Ġs",
        "ay"
      ],
      [
        "Ġu",
        "s"
      ],
      [
        "Ġl",
        "et"
      ],
      [
        "in",
        "k"
      ],
      [
        "IN",
        "G"
      ],
      [
        "u",
        "e"
      ],
      [
        "Ġhe",
        "re"
      ],
      [
        "is",
        "h"
      ],
      [
        "ĠW",
        "he"
      ],
      [
        "R",
        "O"
      ],
      [
        "Ġ",
        "J"
      ],
      [
        "L",
        "E"
      ],
      [
        "n",
        "g"
      ],
      [
        "I",
        "A"
      ],
      [
        "ĠM",
        "y"
      ],
      [
        "e",
        "l"
      ],
      [
        "ĠY",
        "ou"
      ],
      [
        "re",
        "at"
      ],
      [
        "Ġ",
        "r"
      ],
      [
        "ot",
        "her"
      ],
      [
        "h",
        "y"
      ],
      [
        "ĠA",
        "N"
      ],
      [
        "Ġwe",
        "ll"
      ],
      [
        "ĠI",
        "f"
      ],
      [
        "Ġhat",
        "h"
      ],
      [
        "u",
        "m"
      ],
      [
        "E",
        "D"
      ],
      [
        "O",
        "L"
      ],
      [
        "v",
        "es"
      ],
      [
        "a",
        "re"
      ],
      [
        "ĠC",
        "O"
      ],
      [
        "at",
        "her"
      ],
      [
        "f",
        "ore"
      ],
      [
        "oo",
        "k"
      ],
      [
        "o",
        "d"
      ],
      [
        "Ġp",
        "l"
      ],
      [
        "a",
        "k"
      ],
      [
        "Ġse",
        "e"
      ],
      [
        "am",
        "e"
      ],
      [
        "Ġthe",
        "n"
      ],
      [
        "I",
        "US"
      ],
      [
        "i",
        "g"
      ],
      [
        "Ġon",
        "e"
      ],
      [
        "or",
        "t"
      ],
      [
        "Ġb",
        "r"
      ],
      [
        "Ġ",
        "j"
      ],
      [
        "Ġli",
        "ke"
      ],
      [
        "Ġc",
        "ome"
      ],
      [
        "ou",
        "nd"
      ],
      [
        "Ġ",
        "V"
      ],
      [
        "Ġsh",
        "ould"
      ],
      [
        "Ġd",
        "id"
      ],
      [
        "ĠO",
        "F"
      ],
      [
        "Ġu",
        "n"
      ],
      [
        "Ġm",
        "ay"
      ],
      [
        "ĠA",
        "s"
      ],
      [
        "Ġm",
        "ad"
      ],
      [
        "an",
        "ce"
      ],
      [
        "Ġm",
        "ake"
      ],
      [
        "g",
        "ain"
      ],
      [
        "Ġd",
        "is"
      ],
      [
        "Ġh",
        "o"
      ],
      [
        "Ġ",
        "out"
      ],
      [
        "ĠĠĠĠĠĠĠĠĠĠĠĠĠĠĠĠ",
        "ĠĠĠĠĠĠĠĠĠĠĠĠĠĠĠĠ"
      ],
      [
        "ea",
        "k"
      ],
      [
        "Ġup",
        "on"
      ],
      [
        "id",
        "e"
      ],
      [
        "L",
        "O"
      ],
      [
        "i",
        "ce"
      ],
      [
        "Ġw",
        "hich"
      ],
      [
        "Ġs",
        "a"
      ],
      [
        "Ġmu",
        "st"
      ],
      [
        "Ġwe",
        "re"
      ],
      [
        "u",
        "n"
      ],
      [
        "ver",
        "y"
      ],
      [
        "U",
        "T"
      ],
      [
        "ĠE",
        "nter"
      ],
      [
        "ĠĠĠĠĠĠĠĠ",
        "ĠĠĠĠ"
      ],
      [
        "Ġha",
        "d"
      ],
      [
        "Ġt",
        "ru"
      ],
      [
        "ĠK",
        "ING"
      ],
      [
        "p",
        "e"
      ],
      [
        "Ġ",
        "qu"
      ],
      [
        "it",
        "y"
      ],
      [
        "Ġto",
        "o"
      ],
      [
        "im",
        "e"
      ],
      [
        "Ġp",
        "ro"
      ],
      [
        "ĠK",
        "ing"
      ],
      [
        "p",
        "t"
      ],
      [
        "I",
        "R"
      ],
      [
        "en",
        "ce"
      ],
      [
        "t",
        "her"
      ],
      [
        "Ġhe",
        "art"
      ],
      [
        "u",
        "nt"
      ],
      [
        "or",
        "n"
      ],
      [
        "Ġwhe",
        "n"
      ],
      [
        "Ġha",
        "nd"
      ],
      [
        "Ġsu",
        "ch"
      ],
      [
        "i",
        "es"
      ],
      [
        "ĠB",
        "e"
      ],
      [
        "Ġp",
        "o"
      ],
      [
        "Ġh",
        "on"
      ],
      [
        "Ġ",
        "en"
      ],
      [
        "ĠI",
        "n"
      ],
      [
        "Ġe",
        "x"
      ],
      [
        "I",
        "B"
      ],
      [
        "Ġa",
        "gain"
      ],
      [
        "ĠW",
        "hy"
      ],
      [
        "ĠH",
        "ow"
      ],
      [
        "ER",
        "S"
      ],
      [
        "Ġa",
        "l"
      ],
      [
        "ĠTh",
        "ou"
      ],
      [
        "I",
        "S"
      ],
      [
        "n",
        "ess"
      ],
      [
        "Ġsp",
        "eak"
      ],
      [
        "o",
        "nd"
      ],
      [
        "a",
        "ve"
      ],
      [
        "Ġe",
        "y"
      ],
      [
        "ĠW",
        "ith"
      ],
      [
        "ĠTh",
        "is"
      ],
      [
        "w",
        "n"
      ],
      [
        "f",
        "f"
      ],
      [
        "in",
        "ce"
      ],
      [
        "Ġy",
        "et"
      ],
      [
        "T",
        "R"
      ],
      [
        "ĠS",
        "o"
      ],
      [
        "is",
        "e"
      ],
      [
        "Ġof",
        "f"
      ],
      [
        "o",
        "se"
      ],
      [
        "as",
        "s"
      ],
      [
        "i",
        "ck"
      ],
      [
        "Ġs",
        "ome"
      ],
      [
        "i",
        "re"
      ],
      [
        "Ġw",
        "ho"
      ],
      [
        "is",
        "t"
      ],
      [
        "ĠN",
        "o"
      ],
      [
        "ad",
        "y"
      ],
      [
        "ĠW",
        "e"
      ],
      [
        "A",
        "C"
      ],
      [
        "Ġthe",
        "se"
      ],
      [
        "Ġf",
        "ri"
      ],
      [
        "Ġth",
        "ink"
      ],
      [
        "Ġf",
        "ather"
      ],
      [
        "c",
        "i"
      ],
      [
        "Ġf",
        "o"
      ],
      [
        "Ġm",
        "ine"
      ],
      [
        "AR",
        "D"
      ],
      [
        "e",
        "et"
      ],
      [
        "ur",
        "n"
      ],
      [
        "'",
        "t"
      ],
      [
        "a",
        "ck"
      ],
      [
        "Ġa",
        "b"
      ],
      [
        "o",
        "y"
      ],
      [
        "ing",
        "s"
      ],
      [
        "Ġg",
        "reat"
      ],
      [
        "ow",
        "n"
      ],
      [
        "Ġ",
        "Q"
      ],
      [
        "a",
        "ge"
      ],
      [
        "Ġh",
        "ow"
      ],
      [
        "e",
        "unt"
      ],
      [
        "Ġ",
        "U"
      ],
      [
        "ĠI",
        "t"
      ],
      [
        "ĠĠĠĠĠĠĠĠĠĠĠĠĠĠĠĠ",
        "ĠĠĠĠ"
      ],
      [
        "Ġhe",
        "a"
      ],
      [
        "Ġg",
        "ive"
      ],
      [
        "Ġt",
        "ime"
      ],
      [
        "Ġc",
        "ha"
      ],
      [
        "Ġt",
        "ake"
      ],
      [
        "ĠO",
        "f"
      ],
      [
        "Ġmu",
        "ch"
      ],
      [
        "ĠP",
        "r"
      ],
      [
        "Ġt",
        "w"
      ],
      [
        "Ġm",
        "ost"
      ],
      [
        "ĠThe",
        "re"
      ],
      [
        "w",
        "ay"
      ],
      [
        "ĠI",
        "s"
      ],
      [
        "Ġfri",
        "end"
      ],
      [
        "a",
        "g"
      ],
      [
        "ĠEx",
        "eunt"
      ],
      [
        "at",
        "ion"
      ],
      [
        "ast",
        "er"
      ],
      [
        "ent",
        "le"
      ],
      [
        "f",
        "ul"
      ],
      [
        "Ġt",
        "ell"
      ],
      [
        "ĠW",
        "ho"
      ],
      [
        "Ġm",
        "ar"
      ],
      [
        "Ġd",
        "ay"
      ],
      [
        "ĠC",
        "ome"
      ],
      [
        "ĠL",
        "et"
      ],
      [
        "Ġbe",
        "t"
      ],
      [
        "Ġwhe",
        "re"
      ],
      [
        "Ġb",
        "re"
      ],
      [
        "IN",
        "E"
      ],
      [
        "Ġ",
        "ro"
      ],
      [
        "ES",
        "S"
      ],
      [
        "I",
        "ST"
      ],
      [
        "Ġf",
        "l"
      ],
      [
        "re",
        "e"
      ],
      [
        "Ġg",
        "ra"
      ],
      [
        "A",
        "D"
      ],
      [
        "Ġhe",
        "ar"
      ],
      [
        "Ġl",
        "e"
      ],
      [
        "er",
        "t"
      ],
      [
        "o",
        "s"
      ],
      [
        "a",
        "p"
      ],
      [
        "Ġd",
        "es"
      ],
      [
        "Ġm",
        "en"
      ],
      [
        "ĠT",
        "H"
      ],
      [
        "Ġl",
        "ea"
      ],
      [
        "u",
        "st"
      ],
      [
        "Ġl",
        "ook"
      ],
      [
        "Ġw",
        "ord"
      ],
      [
        "Ġne",
        "ver"
      ],
      [
        "Ġar",
        "t"
      ],
      [
        "E",
        "C"
      ],
      [
        "Ġp",
        "art"
      ],
      [
        "ĠW",
        "hich"
      ],
      [
        "Ġbl",
        "ood"
      ],
      [
        "i",
        "o"
      ],
      [
        "ig",
        "n"
      ],
      [
        "u",
        "ll"
      ],
      [
        "Ġo",
        "ther"
      ],
      [
        "res",
        "s"
      ],
      [
        "I",
        "T"
      ],
      [
        "it",
        "her"
      ],
      [
        "ĠF",
        "OR"
      ],
      [
        "Ġde",
        "ath"
      ],
      [
        "U",
        "R"
      ],
      [
        "ĠWhe",
        "n"
      ],
      [
        "Ġli",
        "fe"
      ],
      [
        "l",
        "i"
      ],
      [
        "ou",
        "gh"
      ],
      [
        "Ġw",
        "r"
      ],
      [
        "oo",
        "l"
      ],
      [
        "ĠWhe",
        "re"
      ],
      [
        "Ġs",
        "on"
      ],
      [
        "ou",
        "nt"
      ],
      [
        "Ġe",
        "ar"
      ],
      [
        "Ġs",
        "er"
      ],
      [
        "ĠP",
        "RO"
      ],
      [
        "Ġg",
        "entle"
      ],
      [
        "Ġin",
        "t"
      ],
      [
        "a",
        "se"
      ],
      [
        "m",
        "ent"
      ],
      [
        "ĠEx",
        "it"
      ],
      [
        "ĠO",
        "R"
      ],
      [
        "i",
        "gh"
      ],
      [
        "Ġt",
        "r"
      ],
      [
        "ou",
        "l"
      ],
      [
        "ĠG",
        "od"
      ],
      [
        "Ġs",
        "c"
      ],
      [
        "Ġf",
        "ear"
      ],
      [
        "Ġfa",
        "ir"
      ],
      [
        "Ġ",
        "ri"
      ],
      [
        "ĠB",
        "y"
      ],
      [
        "E",
        "L"
      ],
      [
        "Ġd",
        "oth"
      ],
      [
        "ĠS",
        "ir"
      ],
      [
        "Ġp",
        "le"
      ],
      [
        "AN",
        "T"
      ],
      [
        "I",
        "ON"
      ],
      [
        "t",
        "le"
      ],
      [
        "E",
        "M"
      ],
      [
        "Ġan",
        "y"
      ],
      [
        "a",
        "ce"
      ],
      [
        "ĠC",
        "A"
      ],
      [
        "w",
        "ard"
      ],
      [
        "Ġcom",
        "m"
      ],
      [
        "Ġo",
        "wn"
      ],
      [
        "it",
        "e"
      ],
      [
        "Ġw",
        "ar"
      ],
      [
        "ĠN",
        "ow"
      ],
      [
        "Ġhon",
        "our"
      ],
      [
        "t",
        "is"
      ],
      [
        "ĠA",
        "R"
      ],
      [
        "F",
        "F"
      ],
      [
        "Ġc",
        "l"
      ],
      [
        "n",
        "ot"
      ],
      [
        "Ġa",
        "d"
      ],
      [
        "an",
        "s"
      ],
      [
        "c",
        "es"
      ],
      [
        "h",
        "ing"
      ],
      [
        "Ġp",
        "er"
      ],
      [
        "Ġsw",
        "eet"
      ],
      [
        "EN",
        "E"
      ],
      [
        "e",
        "ed"
      ],
      [
        "ĠO",
        "r"
      ],
      [
        "Ġ",
        "ra"
      ],
      [
        "Ġ",
        "very"
      ],
      [
        "AN",
        "D"
      ],
      [
        "Ġmad",
        "e"
      ],
      [
        "Ġtru",
        "e"
      ],
      [
        "E",
        "LL"
      ],
      [
        "Ġhea",
        "ven"
      ],
      [
        "e",
        "e"
      ],
      [
        "P",
        "H"
      ],
      [
        "Ġc",
        "all"
      ],
      [
        "I",
        "AN"
      ],
      [
        "ĠM",
        "ar"
      ],
      [
        "n",
        "ce"
      ],
      [
        "Ġn",
        "ight"
      ],
      [
        "u",
        "d"
      ],
      [
        "row",
        "n"
      ],
      [
        "l",
        "and"
      ],
      [
        "G",
        "E"
      ],
      [
        "T",
        "E"
      ],
      [
        "f",
        "t"
      ],
      [
        "Ġc",
        "o"
      ],
      [
        "ĠD",
        "o"
      ],
      [
        "Ġw",
        "h"
      ],
      [
        "Ġa",
        "pp"
      ],
      [
        "ĠL",
        "ord"
      ],
      [
        "O",
        "W"
      ],
      [
        "Ġcan",
        "not"
      ],
      [
        "Ġ",
        "ke"
      ],
      [
        "ll",
        "ow"
      ],
      [
        "Ġha",
        "st"
      ],
      [
        "ct",
        "ion"
      ],
      [
        "Ġa",
        "f"
      ],
      [
        "au",
        "gh"
      ],
      [
        "nd",
        "er"
      ],
      [
        "K",
        "E"
      ],
      [
        "Ġp",
        "re"
      ],
      [
        "a",
        "ble"
      ],
      [
        "Ġw",
        "it"
      ],
      [
        "Ġwor",
        "ld"
      ],
      [
        "IST",
        "R"
      ],
      [
        "A",
        "T"
      ],
      [
        "ou",
        "se"
      ],
      [
        "b",
        "er"
      ],
      [
        "Ġpr",
        "ay"
      ],
      [
        "ĠAN",
        "D"
      ],
      [
        "p",
        "er"
      ],
      [
        "ĠThe",
        "n"
      ],
      [
        "Ġey",
        "es"
      ],
      [
        "v",
        "ing"
      ],
      [
        "A",
        "B"
      ],
      [
        "Ġbe",
        "en"
      ],
      [
        "Ġst",
        "r"
      ],
      [
        "o",
        "ve"
      ],
      [
        "ĠHe",
        "re"
      ],
      [
        "C",
        "E"
      ],
      [
        "Ġa",
        "way"
      ],
      [
        "s",
        "w"
      ],
      [
        "Ġc",
        "our"
      ],
      [
        "l",
        "es"
      ],
      [
        "m",
        "an"
      ],
      [
        "Ġbr",
        "other"
      ],
      [
        "I",
        "D"
      ],
      [
        "c",
        "c"
      ],
      [
        "ĠA",
        "y"
      ],
      [
        "Ġ",
        "im"
      ],
      [
        "o",
        "ck"
      ],
      [
        "Ġbe",
        "ar"
      ],
      [
        "T",
        "ER"
      ],
      [
        "ĠY",
        "our"
      ],
      [
        "Ġcom",
        "p"
      ],
      [
        "Ġd",
        "own"
      ],
      [
        "or",
        "row"
      ],
      [
        "Ġd",
        "one"
      ],
      [
        "ĠS",
        "t"
      ],
      [
        "C",
        "ENE"
      ],
      [
        "Ġn",
        "ame"
      ],
      [
        "ĠB",
        "Y"
      ],
      [
        "ĠCO",
        "P"
      ],
      [
        "IB",
        "UT"
      ],
      [
        "ISTR",
        "IBUT"
      ],
      [
        "c",
        "he"
      ],
      [
        "Ġhe",
        "ad"
      ],
      [
        "re",
        "d"
      ],
      [
        "Ġ",
        "ru"
      ],
      [
        "Ġn",
        "or"
      ],
      [
        "H",
        "A"
      ],
      [
        "T",
        "is"
      ],
      [
        "Ġw",
        "om"
      ],
      [
        "Ġw",
        "ay"
      ],
      [
        "Ġst",
        "and"
      ],
      [
        "Ġl",
        "a"
      ],
      [
        "Ġtw",
        "o"
      ],
      [
        "if",
        "e"
      ],
      [
        "I",
        "M"
      ],
      [
        "ĠD",
        "U"
      ],
      [
        "ain",
        "t"
      ],
      [
        "Ġe",
        "ver"
      ],
      [
        "Ġo",
        "ld"
      ],
      [
        "Ġbe",
        "fore"
      ],
      [
        "OR",
        "D"
      ],
      [
        "Ġcon",
        "t"
      ],
      [
        "s",
        "s"
      ],
      [
        "ĠS",
        "ha"
      ],
      [
        "Ġm",
        "ight"
      ],
      [
        "E",
        "nter"
      ],
      [
        "ĠC",
        "a"
      ],
      [
        "IR",
        "ST"
      ],
      [
        "Ġp",
        "res"
      ],
      [
        "ĠF",
        "IRST"
      ],
      [
        "Ġl",
        "ady"
      ],
      [
        "Ġthou",
        "ght"
      ],
      [
        "Ġlea",
        "ve"
      ],
      [
        "I",
        "L"
      ],
      [
        "Ġf",
        "ool"
      ],
      [
        "Ġno",
        "ble"
      ],
      [
        "Ġne",
        "w"
      ],
      [
        "Ġar",
        "m"
      ],
      [
        "Ġs",
        "l"
      ],
      [
        "ĠI",
        "S"
      ],
      [
        "u",
        "ke"
      ],
      [
        "Ġth",
        "us"
      ],
      [
        "Ġ",
        "("
      ],
      [
        "UC",
        "H"
      ],
      [
        "k",
        "s"
      ],
      [
        "ĠĠĠĠĠĠĠĠĠĠĠĠĠĠĠĠ",
        "ĠĠĠĠĠĠĠĠ"
      ],
      [
        "ĠR",
        "e"
      ],
      [
        "Ġcom",
        "es"
      ],
      [
        "is",
        "s"
      ],
      [
        "Ġc",
        "ould"
      ],
      [
        "Ġbe",
        "g"
      ],
      [
        "Ġre",
        "m"
      ],
      [
        "Ġl",
        "ong"
      ],
      [
        "ĠW",
        "ell"
      ],
      [
        "EN",
        "T"
      ],
      [
        "e",
        "f"
      ],
      [
        "p",
        "s"
      ],
      [
        "as",
        "on"
      ],
      [
        "au",
        "se"
      ],
      [
        "O",
        "M"
      ],
      [
        "Ġbet",
        "ter"
      ],
      [
        "ĠA",
        "n"
      ],
      [
        "ĠG",
        "o"
      ],
      [
        "l",
        "ess"
      ],
      [
        "I",
        "LL"
      ],
      [
        "Ġp",
        "ur"
      ],
      [
        "at",
        "ch"
      ],
      [
        "ir",
        "st"
      ],
      [
        "ear",
        "s"
      ],
      [
        "Ġs",
        "oul"
      ],
      [
        "augh",
        "ter"
      ],
      [
        "Ġha",
        "r"
      ],
      [
        "ĠW",
        "ill"
      ],
      [
        "ĠQ",
        "U"
      ],
      [
        "Ġsh",
        "ow"
      ],
      [
        "a",
        "ch"
      ],
      [
        "p",
        "le"
      ],
      [
        "Ġh",
        "ouse"
      ],
      [
        "at",
        "ter"
      ],
      [
        "Ġpo",
        "or"
      ],
      [
        "Ġf",
        "ind"
      ],
      [
        "an",
        "g"
      ],
      [
        "ER",
        "V"
      ],
      [
        "Ġint",
        "o"
      ],
      [
        "w",
        "e"
      ],
      [
        "Ġde",
        "ad"
      ],
      [
        "ea",
        "ce"
      ],
      [
        "e",
        "w"
      ],
      [
        "or",
        "s"
      ],
      [
        "S",
        "S"
      ],
      [
        "ĠG",
        "ood"
      ],
      [
        "Ġb",
        "est"
      ],
      [
        "ĠA",
        "l"
      ],
      [
        "ĠD",
        "uke"
      ],
      [
        "Ġbe",
        "ing"
      ],
      [
        "i",
        "ous"
      ],
      [
        "i",
        "a"
      ],
      [
        "Ġnot",
        "hing"
      ],
      [
        "Ġke",
        "ep"
      ],
      [
        "Ġre",
        "p"
      ],
      [
        "ou",
        "ght"
      ],
      [
        "Ġm",
        "er"
      ],
      [
        "Ġk",
        "ing"
      ],
      [
        "ow",
        "er"
      ],
      [
        "Ġe",
        "nd"
      ],
      [
        "ĠC",
        "l"
      ],
      [
        "ĠS",
        "he"
      ],
      [
        "Ġman",
        "y"
      ],
      [
        "Ġ",
        "ent"
      ],
      [
        "ĠH",
        "is"
      ],
      [
        "ĠCO",
        "M"
      ],
      [
        "c",
        "ome"
      ],
      [
        "ĠDU",
        "KE"
      ],
      [
        "Ġb",
        "oth"
      ],
      [
        "ĠAN",
        "T"
      ],
      [
        "Ġser",
        "v"
      ],
      [
        "c",
        "y"
      ],
      [
        "t",
        "y"
      ],
      [
        "ĠC",
        "H"
      ],
      [
        "Ġli",
        "ve"
      ],
      [
        "i",
        "us"
      ],
      [
        "t",
        "un"
      ],
      [
        "nt",
        "o"
      ],
      [
        "Ġg",
        "l"
      ],
      [
        "ĠN",
        "ay"
      ],
      [
        "Ġb",
        "ra"
      ],
      [
        "ĠT",
        "han"
      ],
      [
        "Ġe",
        "very"
      ],
      [
        "ĠThe",
        "y"
      ],
      [
        "ak",
        "es"
      ],
      [
        "M",
        "ER"
      ],
      [
        "ĠN",
        "or"
      ],
      [
        "Ġf",
        "ell"
      ],
      [
        "Ġmy",
        "self"
      ],
      [
        "ĠM",
        "AC"
      ],
      [
        "Ġp",
        "ut"
      ],
      [
        "d",
        "s"
      ],
      [
        "i",
        "ed"
      ],
      [
        "Ġm",
        "aster"
      ],
      [
        "r",
        "ance"
      ],
      [
        "ĠO",
        "TH"
      ],
      [
        "Ġst",
        "ill"
      ],
      [
        "ON",
        "D"
      ],
      [
        "Ġfriend",
        "s"
      ],
      [
        "l",
        "f"
      ],
      [
        "i",
        "an"
      ],
      [
        "Ġin",
        "d"
      ],
      [
        "et",
        "h"
      ],
      [
        "u",
        "ck"
      ],
      [
        "Y",
        "R"
      ],
      [
        "i",
        "er"
      ],
      [
        "Ġs",
        "m"
      ],
      [
        "ĠE",
        "ng"
      ],
      [
        "Ġw",
        "ife"
      ],
      [
        "in",
        "s"
      ],
      [
        "hi",
        "p"
      ],
      [
        "ĠN",
        "ot"
      ],
      [
        "B",
        "ER"
      ],
      [
        "it",
        "tle"
      ],
      [
        "o",
        "ld"
      ],
      [
        "Ġfo",
        "llow"
      ],
      [
        "Ġt",
        "ong"
      ],
      [
        "ĠM",
        "AR"
      ],
      [
        "P",
        "E"
      ],
      [
        "m",
        "e"
      ],
      [
        "m",
        "p"
      ],
      [
        "v",
        "il"
      ],
      [
        "Ġs",
        "et"
      ],
      [
        "Ġli",
        "e"
      ],
      [
        "ES",
        "TER"
      ],
      [
        "re",
        "n"
      ],
      [
        "Ġd",
        "aughter"
      ],
      [
        "OR",
        "K"
      ],
      [
        "Ġn",
        "at"
      ],
      [
        "ĠPr",
        "ince"
      ],
      [
        "r",
        "ant"
      ],
      [
        "Ġl",
        "ittle"
      ],
      [
        "I",
        "ES"
      ],
      [
        "ĠH",
        "am"
      ],
      [
        "ĠT",
        "IM"
      ],
      [
        "ra",
        "ce"
      ],
      [
        "ĠANT",
        "ON"
      ],
      [
        "ĠL",
        "UC"
      ],
      [
        "ĠSha",
        "ll"
      ],
      [
        "ĠE",
        "d"
      ],
      [
        "ĠR",
        "ome"
      ],
      [
        "Ġho",
        "ld"
      ],
      [
        "i",
        "le"
      ],
      [
        "Ġf",
        "irst"
      ],
      [
        "ĠO",
        "n"
      ],
      [
        "Ġth",
        "ose"
      ],
      [
        "Ġh",
        "our"
      ],
      [
        "Ġde",
        "ar"
      ],
      [
        "EC",
        "OND"
      ],
      [
        "m",
        "en"
      ],
      [
        "es",
        "ar"
      ],
      [
        "c",
        "l"
      ],
      [
        "Ġs",
        "le"
      ],
      [
        "w",
        "ell"
      ],
      [
        "Ġyou",
        "ng"
      ],
      [
        "Ġcon",
        "f"
      ],
      [
        "E",
        "T"
      ],
      [
        "Ġlord",
        "s"
      ],
      [
        "ĠL",
        "ORD"
      ],
      [
        "Ġagain",
        "st"
      ],
      [
        "N",
        "C"
      ],
      [
        "a",
        "c"
      ],
      [
        "Ġd",
        "ie"
      ],
      [
        "Ġcon",
        "s"
      ],
      [
        "ut",
        "h"
      ],
      [
        "ie",
        "ld"
      ],
      [
        "in",
        "t"
      ],
      [
        "ĠB",
        "r"
      ],
      [
        "Ġan",
        "sw"
      ],
      [
        ".",
        "'"
      ],
      [
        "Ġg",
        "u"
      ],
      [
        "Ġg",
        "one"
      ],
      [
        "ĠS",
        "ECOND"
      ],
      [
        "L",
        "Y"
      ],
      [
        "it",
        "s"
      ],
      [
        "ar",
        "k"
      ],
      [
        "ĠH",
        "ave"
      ],
      [
        "on",
        "s"
      ],
      [
        "Ġm",
        "a"
      ],
      [
        "Ġc",
        "hi"
      ],
      [
        "US",
        "E"
      ],
      [
        "al",
        "k"
      ],
      [
        "ON",
        "IC"
      ],
      [
        "b",
        "l"
      ],
      [
        "ĠH",
        "er"
      ],
      [
        "Ġt",
        "ra"
      ],
      [
        "Ġhim",
        "self"
      ],
      [
        "Ġre",
        "st"
      ],
      [
        "Ġey",
        "e"
      ],
      [
        "9",
        "9"
      ],
      [
        "re",
        "t"
      ],
      [
        "Ġe",
        "l"
      ],
      [
        "ĠE",
        "LE"
      ],
      [
        "il",
        "t"
      ],
      [
        "UC",
        "ESTER"
      ],
      [
        "LO",
        "UCESTER"
      ],
      [
        "ĠCa",
        "esar"
      ],
      [
        "f",
        "or"
      ],
      [
        "l",
        "t"
      ],
      [
        "Ġth",
        "ine"
      ],
      [
        "ĠA",
        "t"
      ],
      [
        "Ġpl",
        "ace"
      ],
      [
        "1",
        "99"
      ],
      [
        "C",
        "TR"
      ],
      [
        "Ġm",
        "ind"
      ],
      [
        "ĠI",
        "NC"
      ],
      [
        "ĠD",
        "ISTRIBUT"
      ],
      [
        "ĠAR",
        "E"
      ],
      [
        "ĠCOP",
        "IES"
      ],
      [
        "MER",
        "C"
      ],
      [
        "ĠELE",
        "CTR"
      ],
      [
        "ĠELECTR",
        "ONIC"
      ],
      [
        "ĠG",
        "LOUCESTER"
      ],
      [
        "in",
        "ess"
      ],
      [
        "E",
        "EN"
      ],
      [
        "ĠR",
        "O"
      ],
      [
        "Ġc",
        "h"
      ],
      [
        "Ġat",
        "t"
      ],
      [
        "Ġcour",
        "t"
      ],
      [
        "i",
        "v"
      ],
      [
        "Ġb",
        "oy"
      ],
      [
        "Ġfa",
        "ll"
      ],
      [
        "Ġwor",
        "th"
      ],
      [
        "Ġwom",
        "an"
      ],
      [
        "Ġpl",
        "ay"
      ],
      [
        "A",
        "G"
      ],
      [
        "Ġp",
        "ass"
      ],
      [
        "Ġfa",
        "ce"
      ],
      [
        "ou",
        "d"
      ],
      [
        "en",
        "s"
      ],
      [
        "est",
        "y"
      ],
      [
        "ĠY",
        "et"
      ],
      [
        "Ġst",
        "ay"
      ],
      [
        "Ġsw",
        "ord"
      ],
      [
        "L",
        "I"
      ],
      [
        "ist",
        "ress"
      ],
      [
        "Ġk",
        "ind"
      ],
      [
        "Ġt",
        "ill"
      ],
      [
        "Ġt",
        "ri"
      ],
      [
        "Ġm",
        "other"
      ],
      [
        "ha",
        "r"
      ],
      [
        "le",
        "d"
      ],
      [
        "g",
        "et"
      ],
      [
        "Ġn",
        "one"
      ],
      [
        "Ġg",
        "ri"
      ],
      [
        "ĠQU",
        "EEN"
      ],
      [
        "Ġtong",
        "ue"
      ],
      [
        "ut",
        "y"
      ],
      [
        "ĠTh",
        "y"
      ],
      [
        "ĠP",
        "A"
      ],
      [
        "ĠA",
        "ll"
      ],
      [
        "Ġp",
        "eace"
      ],
      [
        "Ġword",
        "s"
      ],
      [
        "Ġaf",
        "ter"
      ],
      [
        "Ġansw",
        "er"
      ],
      [
        "C",
        "H"
      ],
      [
        "U",
        "N"
      ],
      [
        "Ġcha",
        "r"
      ],
      [
        "is",
        "on"
      ],
      [
        "Ġf",
        "ull"
      ],
      [
        "ow",
        "s"
      ],
      [
        "Ġg",
        "i"
      ],
      [
        "ir",
        "t"
      ],
      [
        "Ġpres",
        "ent"
      ],
      [
        "e",
        "ct"
      ],
      [
        "Ġc",
        "ur"
      ],
      [
        "ĠF",
        "rance"
      ],
      [
        "Ġt",
        "urn"
      ],
      [
        "Ġo",
        "b"
      ],
      [
        "Ġp",
        "e"
      ],
      [
        "Ġre",
        "s"
      ],
      [
        "S",
        "CENE"
      ],
      [
        "Ġh",
        "us"
      ],
      [
        "Ġel",
        "se"
      ],
      [
        "a",
        "b"
      ],
      [
        "ĠA",
        "nt"
      ],
      [
        "Ġfor",
        "tun"
      ],
      [
        "Ġbr",
        "ing"
      ],
      [
        "Ġu",
        "nder"
      ],
      [
        "Ġthou",
        "gh"
      ],
      [
        "Ġim",
        "p"
      ],
      [
        "Ġc",
        "he"
      ],
      [
        "OW",
        "N"
      ],
      [
        "R",
        "Y"
      ],
      [
        "O",
        "T"
      ],
      [
        "Ġd",
        "ra"
      ],
      [
        "Ġfor",
        "th"
      ],
      [
        "Ġri",
        "ght"
      ],
      [
        "A",
        "M"
      ],
      [
        "ĠO",
        "ur"
      ],
      [
        "Ġne",
        "ed"
      ],
      [
        "it",
        "ion"
      ],
      [
        "s",
        "and"
      ],
      [
        "Ġb",
        "ack"
      ],
      [
        "ul",
        "t"
      ],
      [
        "ĠJ",
        "o"
      ],
      [
        "Ġc",
        "ount"
      ],
      [
        "ĠC",
        "LO"
      ],
      [
        "IC",
        "K"
      ],
      [
        "Ġt",
        "re"
      ],
      [
        "Ġbe",
        "l"
      ],
      [
        "Ġsp",
        "ir"
      ],
      [
        "EN",
        "RY"
      ],
      [
        "ĠH",
        "ENRY"
      ],
      [
        "Ġse",
        "em"
      ],
      [
        "Ġme",
        "an"
      ],
      [
        "Ġwho",
        "se"
      ],
      [
        "ĠQ",
        "ue"
      ],
      [
        "a",
        "le"
      ],
      [
        "Ġm",
        "atter"
      ],
      [
        "Ġc",
        "rown"
      ],
      [
        "Ġme",
        "et"
      ],
      [
        "A",
        "FF"
      ],
      [
        "b",
        "and"
      ],
      [
        "Ġa",
        "cc"
      ],
      [
        "Ġp",
        "ri"
      ],
      [
        "Ġsa",
        "id"
      ],
      [
        "ĠQue",
        "en"
      ],
      [
        "U",
        "M"
      ],
      [
        "IC",
        "H"
      ],
      [
        "O",
        "ST"
      ],
      [
        "Ġc",
        "han"
      ],
      [
        "as",
        "ure"
      ],
      [
        "Ġon",
        "ce"
      ],
      [
        "Ġwr",
        "ong"
      ],
      [
        "Ġsu",
        "b"
      ],
      [
        "A",
        "ST"
      ],
      [
        "ĠR",
        "ICH"
      ],
      [
        "Ġv",
        "ill"
      ],
      [
        "ee",
        "ch"
      ],
      [
        "ĠB",
        "R"
      ],
      [
        "Ġan",
        "other"
      ],
      [
        "Ġchi",
        "ld"
      ],
      [
        "Ġre",
        "ason"
      ],
      [
        "Ġlet",
        "ter"
      ],
      [
        "Ġb",
        "id"
      ],
      [
        "I",
        "G"
      ],
      [
        "Ġfa",
        "ith"
      ],
      [
        "Ġh",
        "um"
      ],
      [
        "ĠU",
        "p"
      ],
      [
        "Ġhus",
        "band"
      ],
      [
        "Ġp",
        "ra"
      ],
      [
        "Ġre",
        "t"
      ],
      [
        "O",
        "P"
      ],
      [
        "a",
        "il"
      ],
      [
        "i",
        "x"
      ],
      [
        "l",
        "p"
      ],
      [
        "s",
        "ide"
      ],
      [
        "Ġthere",
        "fore"
      ],
      [
        "hi",
        "le"
      ],
      [
        "Ġho",
        "pe"
      ],
      [
        "ĠCH",
        "AR"
      ],
      [
        "h",
        "n"
      ],
      [
        "Ġso",
        "ld"
      ],
      [
        "or",
        "se"
      ],
      [
        "Ġu",
        "nto"
      ],
      [
        "ri",
        "ed"
      ],
      [
        "Ġth",
        "ing"
      ],
      [
        "ST",
        "AFF"
      ],
      [
        "AL",
        "STAFF"
      ],
      [
        "Ġear",
        "th"
      ],
      [
        "Ġo",
        "ver"
      ],
      [
        "Ġc",
        "ou"
      ],
      [
        "on",
        "t"
      ],
      [
        "Ġth",
        "ree"
      ],
      [
        "ĠF",
        "ALSTAFF"
      ],
      [
        "Ġind",
        "eed"
      ],
      [
        "Ġd",
        "re"
      ],
      [
        "Ġb",
        "es"
      ],
      [
        "Ġf",
        "al"
      ],
      [
        "Ġth",
        "r"
      ],
      [
        "Ġab",
        "out"
      ],
      [
        "Ġm",
        "o"
      ],
      [
        "Ġas",
        "s"
      ],
      [
        "Ġk",
        "ill"
      ],
      [
        "Ġh",
        "ome"
      ],
      [
        "Ġb",
        "od"
      ],
      [
        "Ġple",
        "ase"
      ],
      [
        "A",
        "Y"
      ],
      [
        "or",
        "y"
      ],
      [
        "O",
        "B"
      ],
      [
        "at",
        "i"
      ],
      [
        "ĠF",
        "rom"
      ],
      [
        "a",
        "ir"
      ],
      [
        "sel",
        "ves"
      ],
      [
        "ĠJo",
        "hn"
      ],
      [
        "Ġli",
        "ght"
      ],
      [
        "Ġst",
        "re"
      ],
      [
        "is",
        "ter"
      ],
      [
        "ar",
        "y"
      ],
      [
        "et",
        "s"
      ],
      [
        "Ġd",
        "ou"
      ],
      [
        "Ġthou",
        "sand"
      ],
      [
        "e",
        "el"
      ],
      [
        "Ġm",
        "on"
      ],
      [
        "Ġhe",
        "nce"
      ],
      [
        "Ġe",
        "ven"
      ],
      [
        "Ġha",
        "s"
      ],
      [
        "Ġtr",
        "uth"
      ],
      [
        "Ġ",
        "\""
      ],
      [
        "I",
        "P"
      ],
      [
        "R",
        "IN"
      ],
      [
        "ĠĠĠĠĠĠĠĠ",
        "ĠĠ"
      ],
      [
        "en",
        "e"
      ],
      [
        "Ġhe",
        "ard"
      ],
      [
        "Ġhand",
        "s"
      ],
      [
        "Ġsle",
        "ep"
      ],
      [
        "ĠRICH",
        "ARD"
      ],
      [
        "IC",
        "E"
      ],
      [
        "ELL",
        "O"
      ],
      [
        "Ġc",
        "ause"
      ],
      [
        "A",
        "side"
      ],
      [
        "ĠS",
        "ERV"
      ],
      [
        "Ġdo",
        "st"
      ],
      [
        "Ġdis",
        "c"
      ],
      [
        "L",
        "A"
      ],
      [
        "p",
        "h"
      ],
      [
        "Ġwh",
        "om"
      ],
      [
        "b",
        "t"
      ],
      [
        "ĠĠĠĠ",
        "ĠĠĠĠĠ"
      ],
      [
        "ĠM",
        "aster"
      ],
      [
        "Ġnat",
        "ure"
      ],
      [
        "Ġu",
        "se"
      ],
      [
        "ert",
        "ain"
      ],
      [
        "Ġfal",
        "se"
      ],
      [
        "on",
        "y"
      ],
      [
        "fe",
        "ct"
      ],
      [
        "Ġj",
        "ust"
      ],
      [
        "Ġmad",
        "am"
      ],
      [
        "ĠUp",
        "on"
      ],
      [
        "v",
        "y"
      ],
      [
        "ĠR",
        "om"
      ],
      [
        "Ġv",
        "irt"
      ],
      [
        "ĠG",
        "ive"
      ],
      [
        "ard",
        "on"
      ],
      [
        "Ġbe",
        "d"
      ],
      [
        "ĠS",
        "p"
      ],
      [
        "ĠG",
        "race"
      ],
      [
        "Ġsu",
        "re"
      ],
      [
        "Ġthan",
        "k"
      ],
      [
        "ER",
        "M"
      ],
      [
        "Ġvill",
        "ain"
      ],
      [
        "E",
        "TH"
      ],
      [
        "Ġ",
        "i"
      ],
      [
        "om",
        "et"
      ],
      [
        "Ġc",
        "ar"
      ],
      [
        "ĠA",
        "re"
      ],
      [
        "im",
        "es"
      ],
      [
        "ĠĠĠĠĠĠĠĠĠĠĠĠ",
        "ĠĠĠ"
      ],
      [
        "pe",
        "ct"
      ],
      [
        "ant",
        "s"
      ],
      [
        "Ġp",
        "ower"
      ],
      [
        "Ġwith",
        "in"
      ],
      [
        "m",
        "b"
      ],
      [
        "ci",
        "ous"
      ],
      [
        "e",
        "al"
      ],
      [
        "m",
        "s"
      ],
      [
        "ĠĠĠĠĠĠĠĠĠĠĠĠ",
        "ĠĠ"
      ],
      [
        "Ġs",
        "ent"
      ],
      [
        "ĠS",
        "u"
      ],
      [
        "Ġst",
        "ate"
      ],
      [
        "ĠG",
        "l"
      ],
      [
        "Ġv",
        "al"
      ],
      [
        "ĠEng",
        "land"
      ],
      [
        "ĠI",
        "I"
      ],
      [
        "ĠĠĠĠĠĠĠĠ",
        "ĠĠĠ"
      ],
      [
        "Ġgo",
        "ld"
      ],
      [
        "Ġla",
        "w"
      ],
      [
        "ur",
        "y"
      ],
      [
        "Ġm",
        "is"
      ],
      [
        "Ġm",
        "akes"
      ],
      [
        "Ġw",
        "ind"
      ],
      [
        "Ġyou",
        "th"
      ],
      [
        "Ġsha",
        "me"
      ],
      [
        "IA",
        "M"
      ],
      [
        "Ġbre",
        "ak"
      ],
      [
        "Ġnew",
        "s"
      ],
      [
        "ĠW",
        "ILL"
      ],
      [
        "che",
        "s"
      ],
      [
        "Ġb",
        "us"
      ],
      [
        "Ġth",
        "ings"
      ],
      [
        "Ġh",
        "ither"
      ],
      [
        "ve",
        "re"
      ],
      [
        "r",
        "ing"
      ],
      [
        "n",
        "ing"
      ],
      [
        "Ġb",
        "u"
      ],
      [
        "an",
        "y"
      ],
      [
        "UT",
        "US"
      ],
      [
        "Ġf",
        "ar"
      ],
      [
        "ĠG",
        "R"
      ],
      [
        "Ġf",
        "ight"
      ],
      [
        "Ġbe",
        "a"
      ],
      [
        "ut",
        "e"
      ],
      [
        "Ġe",
        "re"
      ],
      [
        "Ġfell",
        "ow"
      ],
      [
        "ĠBR",
        "UTUS"
      ],
      [
        "Ġwe",
        "l"
      ],
      [
        "ĠB",
        "ER"
      ],
      [
        "au",
        "d"
      ],
      [
        "ĠPA",
        "GE"
      ],
      [
        "Ġc",
        "ame"
      ],
      [
        "an",
        "ge"
      ],
      [
        "Ġha",
        "pp"
      ],
      [
        "ĠL",
        "A"
      ],
      [
        "Ġgentle",
        "man"
      ],
      [
        "ce",
        "ive"
      ],
      [
        "AN",
        "IO"
      ],
      [
        "d",
        "ay"
      ],
      [
        "ĠĠĠĠĠĠĠĠ",
        "ĠĠĠĠĠ"
      ],
      [
        "ĠANTON",
        "Y"
      ],
      [
        "Ġma",
        "id"
      ],
      [
        "ĠWILL",
        "IAM"
      ],
      [
        "L",
        "U"
      ],
      [
        "W",
        "N"
      ],
      [
        "f",
        "ort"
      ],
      [
        "u",
        "se"
      ],
      [
        "ou",
        "ch"
      ],
      [
        "Ġg",
        "r"
      ],
      [
        "ĠW",
        "ould"
      ],
      [
        "ĠCLO",
        "WN"
      ],
      [
        "E",
        "TR"
      ],
      [
        "S",
        "AL"
      ],
      [
        "ĠP",
        "RIN"
      ],
      [
        "ĠGl",
        "ou"
      ],
      [
        "O",
        "UR"
      ],
      [
        "y",
        "al"
      ],
      [
        "Ġ",
        "ill"
      ],
      [
        "Ġs",
        "ince"
      ],
      [
        "Ġb",
        "an"
      ],
      [
        "ie",
        "ve"
      ],
      [
        "Ġen",
        "ough"
      ],
      [
        "ĠH",
        "ath"
      ],
      [
        "ĠD",
        "id"
      ],
      [
        "Ġad",
        "v"
      ],
      [
        "Ġhe",
        "lp"
      ],
      [
        "Ġr",
        "ather"
      ],
      [
        "EC",
        "T"
      ],
      [
        "ĠRO",
        "SAL"
      ],
      [
        "ad",
        "e"
      ],
      [
        "Ġsha",
        "lt"
      ],
      [
        "Ġgra",
        "ce"
      ],
      [
        "d",
        "d"
      ],
      [
        "ĠSERV",
        "ANT"
      ],
      [
        "i",
        "ld"
      ],
      [
        "ĠĠĠĠ",
        "ĠĠĠ"
      ],
      [
        "Ġdo",
        "es"
      ],
      [
        "p",
        "ose"
      ],
      [
        "Ġha",
        "ng"
      ],
      [
        "Ġl",
        "and"
      ],
      [
        "Ġy",
        "e"
      ],
      [
        "Ġwith",
        "out"
      ],
      [
        "ON",
        "G"
      ],
      [
        "ion",
        "s"
      ],
      [
        "u",
        "nd"
      ],
      [
        "ĠL",
        "ook"
      ],
      [
        "Ġde",
        "vil"
      ],
      [
        "ct",
        "or"
      ],
      [
        "T",
        "o"
      ],
      [
        "ar",
        "s"
      ],
      [
        "ĠS",
        "h"
      ],
      [
        "OR",
        "T"
      ],
      [
        "T",
        "he"
      ],
      [
        "Ġse",
        "c"
      ],
      [
        "Ġhon",
        "est"
      ],
      [
        "get",
        "her"
      ],
      [
        "ĠL",
        "e"
      ],
      [
        "Ġbod",
        "y"
      ],
      [
        "'",
        "re"
      ],
      [
        "Ġl",
        "ast"
      ],
      [
        "ver",
        "s"
      ],
      [
        "Ġgo",
        "ds"
      ],
      [
        "Ġin",
        "st"
      ],
      [
        "en",
        "er"
      ],
      [
        "Ġen",
        "em"
      ],
      [
        ".",
        "]"
      ],
      [
        "ĠOTH",
        "ELLO"
      ],
      [
        "Ġs",
        "ound"
      ],
      [
        "Ġb",
        "o"
      ],
      [
        "our",
        "s"
      ],
      [
        "M",
        "AN"
      ],
      [
        "Ġt",
        "ears"
      ],
      [
        "Ġatt",
        "end"
      ],
      [
        "ĠI",
        "AG"
      ],
      [
        "Ġl",
        "ay"
      ],
      [
        "Ġg",
        "re"
      ],
      [
        "Ġun",
        "c"
      ],
      [
        "ĠIAG",
        "O"
      ],
      [
        "ĠA",
        "r"
      ],
      [
        "ĠS",
        "IR"
      ],
      [
        "ous",
        "in"
      ],
      [
        "Ġwel",
        "come"
      ],
      [
        "A",
        "TH"
      ],
      [
        "Ġc",
        "are"
      ],
      [
        "at",
        "es"
      ],
      [
        "ĠF",
        "al"
      ],
      [
        "ĠL",
        "E"
      ],
      [
        "Ġsu",
        "n"
      ],
      [
        "ĠTH",
        "E"
      ],
      [
        "j",
        "esty"
      ],
      [
        "Ġm",
        "istress"
      ],
      [
        "Ġo",
        "p"
      ],
      [
        "Ġp",
        "ers"
      ],
      [
        "Ġfa",
        "ult"
      ],
      [
        "n",
        "er"
      ],
      [
        "or",
        "k"
      ],
      [
        "ĠF",
        "are"
      ],
      [
        "Ġst",
        "ri"
      ],
      [
        "Ġde",
        "ed"
      ],
      [
        "L",
        "D"
      ],
      [
        "Ġyour",
        "self"
      ],
      [
        "Ġse",
        "nd"
      ],
      [
        "ĠCA",
        "SS"
      ],
      [
        "Ġcomm",
        "and"
      ],
      [
        "j",
        "ect"
      ],
      [
        "u",
        "es"
      ],
      [
        "Ġse",
        "en"
      ],
      [
        "Ġbre",
        "ath"
      ],
      [
        "e",
        "en"
      ],
      [
        "ĠL",
        "ONG"
      ],
      [
        "id",
        "es"
      ],
      [
        "Ġstr",
        "ange"
      ],
      [
        "i",
        "ly"
      ],
      [
        "Ġp",
        "ati"
      ],
      [
        "IS",
        "S"
      ],
      [
        "Ġgri",
        "ef"
      ],
      [
        "g",
        "er"
      ],
      [
        "Ġf",
        "ire"
      ],
      [
        "ĠThere",
        "fore"
      ],
      [
        "we",
        "en"
      ],
      [
        "D",
        "ES"
      ],
      [
        "i",
        "ers"
      ],
      [
        "ur",
        "ther"
      ],
      [
        "Ġsw",
        "ear"
      ],
      [
        "Ġsa",
        "w"
      ],
      [
        "AB",
        "LE"
      ],
      [
        "Ġfortun",
        "e"
      ],
      [
        "Ġspir",
        "it"
      ],
      [
        "Ġn",
        "ear"
      ],
      [
        "Ġk",
        "iss"
      ],
      [
        "Ġstr",
        "ong"
      ],
      [
        "ĠS",
        "O"
      ],
      [
        "Ġme",
        "ans"
      ],
      [
        "ent",
        "s"
      ],
      [
        "ain",
        "s"
      ],
      [
        "ĠĠĠĠĠĠĠĠĠĠĠĠ",
        "ĠĠĠĠĠ"
      ],
      [
        "d",
        "e"
      ],
      [
        "i",
        "ke"
      ],
      [
        "t",
        "en"
      ],
      [
        "Ġh",
        "igh"
      ],
      [
        "ĠY",
        "ORK"
      ],
      [
        "Ġd",
        "ru"
      ],
      [
        "Ġl",
        "ess"
      ],
      [
        "ent",
        "er"
      ],
      [
        "ĠCl",
        "aud"
      ],
      [
        "Ġs",
        "omet"
      ],
      [
        "OL",
        "K"
      ],
      [
        "Ġrem",
        "em"
      ],
      [
        "Ġw",
        "hy"
      ],
      [
        "at",
        "s"
      ],
      [
        "ĠS",
        "CENE"
      ],
      [
        "ĠB",
        "E"
      ],
      [
        "ĠC",
        "LE"
      ],
      [
        "P",
        "LE"
      ],
      [
        "U",
        "FF"
      ],
      [
        "ĠM",
        "EN"
      ],
      [
        "AC",
        "T"
      ],
      [
        "b",
        "y"
      ],
      [
        "o",
        "p"
      ],
      [
        "Ġp",
        "al"
      ],
      [
        "Ġj",
        "oy"
      ],
      [
        "ĠC",
        "an"
      ],
      [
        "ĠM",
        "AY"
      ],
      [
        "ĠR",
        "E"
      ],
      [
        "i",
        "z"
      ],
      [
        "ho",
        "ld"
      ],
      [
        "Ġpro",
        "ve"
      ],
      [
        "I",
        "TH"
      ],
      [
        "Ġw",
        "ish"
      ],
      [
        "Ġwe",
        "ep"
      ],
      [
        "Ġlo",
        "st"
      ],
      [
        "he",
        "s"
      ],
      [
        "Ġg",
        "row"
      ],
      [
        "Ġh",
        "orse"
      ],
      [
        "ĠE",
        "ven"
      ],
      [
        "us",
        "ic"
      ],
      [
        "Ġru",
        "n"
      ],
      [
        "Ġret",
        "urn"
      ],
      [
        "A",
        "S"
      ],
      [
        "e",
        "y"
      ],
      [
        "Ġon",
        "ly"
      ],
      [
        "EM",
        "B"
      ],
      [
        "Ġyour",
        "s"
      ],
      [
        "Ġsp",
        "o"
      ],
      [
        "IN",
        "IUS"
      ],
      [
        "Ġse",
        "a"
      ],
      [
        "ĠU",
        "n"
      ],
      [
        "Ġarm",
        "s"
      ],
      [
        "ang",
        "er"
      ],
      [
        "Ġthr",
        "ough"
      ],
      [
        "ĠW",
        "AR"
      ],
      [
        "ĠĠĠĠĠĠĠĠĠĠĠĠĠĠĠĠĠĠĠĠ",
        "ĠĠĠĠĠ"
      ],
      [
        "W",
        "ICK"
      ],
      [
        "Ġs",
        "ick"
      ],
      [
        "Ġp",
        "ardon"
      ],
      [
        "A",
        "TR"
      ],
      [
        "I",
        "Z"
      ],
      [
        "d",
        "om"
      ],
      [
        "Ġp",
        "rom"
      ],
      [
        "Ġg",
        "et"
      ],
      [
        "ĠM",
        "ESS"
      ],
      [
        "ad",
        "s"
      ],
      [
        "Ġst",
        "ra"
      ],
      [
        "ĠTIM",
        "ON"
      ],
      [
        "OP",
        "ATR"
      ],
      [
        "ĠCLE",
        "OPATR"
      ],
      [
        "ĠCLEOPATR",
        "A"
      ],
      [
        "L",
        "AND"
      ],
      [
        "Ġt",
        "alk"
      ],
      [
        "UT",
        "EN"
      ],
      [
        "r",
        "an"
      ],
      [
        "r",
        "ink"
      ],
      [
        "ĠC",
        "ass"
      ],
      [
        "one",
        "y"
      ],
      [
        "HA",
        "M"
      ],
      [
        "ĠWAR",
        "WICK"
      ],
      [
        "Ġto",
        "gether"
      ],
      [
        "al",
        "th"
      ],
      [
        "o",
        "e"
      ],
      [
        "Ġf",
        "ree"
      ],
      [
        "i",
        "et"
      ],
      [
        "n",
        "ight"
      ],
      [
        "ĠL",
        "ear"
      ],
      [
        "IN",
        "O"
      ],
      [
        "if",
        "t"
      ],
      [
        "Ġhar",
        "d"
      ],
      [
        "Ġcount",
        "ry"
      ],
      [
        "E",
        "Y"
      ],
      [
        "k",
        "en"
      ],
      [
        "it",
        "he"
      ],
      [
        "ĠS",
        "ome"
      ],
      [
        "ĠM",
        "ay"
      ],
      [
        "E",
        "GE"
      ],
      [
        "Ġd",
        "en"
      ],
      [
        "se",
        "d"
      ],
      [
        "G",
        "ER"
      ],
      [
        "Ġb",
        "orn"
      ],
      [
        "ĠF",
        "R"
      ],
      [
        "Ġit",
        "self"
      ],
      [
        "ĠK",
        "ATH"
      ],
      [
        "ĠJ",
        "ul"
      ],
      [
        "Ġthought",
        "s"
      ],
      [
        "V",
        "IA"
      ],
      [
        "o",
        "ple"
      ],
      [
        "Ġc",
        "ousin"
      ],
      [
        "Ġv",
        "o"
      ],
      [
        "el",
        "s"
      ],
      [
        "Ġj",
        "ud"
      ],
      [
        "Ġdis",
        "p"
      ],
      [
        "Ġle",
        "ft"
      ],
      [
        "Ġbus",
        "iness"
      ],
      [
        "X",
        "T"
      ],
      [
        "ou",
        "th"
      ],
      [
        "Ġs",
        "orrow"
      ],
      [
        "st",
        "er"
      ],
      [
        "ĠThe",
        "se"
      ],
      [
        "ĠG",
        "ENT"
      ],
      [
        "Ġsu",
        "pp"
      ],
      [
        "ERS",
        "ON"
      ],
      [
        "ĠWho",
        "se"
      ],
      [
        "Ġro",
        "yal"
      ],
      [
        "IAN",
        "A"
      ],
      [
        "ĠGENT",
        "LE"
      ],
      [
        "m",
        "orrow"
      ],
      [
        "Ġw",
        "ant"
      ],
      [
        "ĠY",
        "ork"
      ],
      [
        "Ġsay",
        "s"
      ],
      [
        "ĠM",
        "a"
      ],
      [
        "Ġt",
        "em"
      ],
      [
        "Ġs",
        "ing"
      ],
      [
        "Ġw",
        "ilt"
      ],
      [
        "Ġf",
        "ore"
      ],
      [
        "en",
        "ry"
      ],
      [
        "ĠThou",
        "gh"
      ],
      [
        "Ġf",
        "ound"
      ],
      [
        "Ġha",
        "lf"
      ],
      [
        "Ġal",
        "one"
      ],
      [
        ".",
        ","
      ],
      [
        "l",
        "ish"
      ],
      [
        "t",
        "w"
      ],
      [
        "Ġf",
        "ly"
      ],
      [
        "Ġf",
        "oul"
      ],
      [
        "ĠS",
        "YR"
      ],
      [
        "ĠH",
        "enry"
      ],
      [
        "ĠL",
        "u"
      ],
      [
        "Ġre",
        "ad"
      ],
      [
        "AC",
        "USE"
      ],
      [
        "ĠOTH",
        "ERS"
      ],
      [
        "ren",
        "ch"
      ],
      [
        "ĠSYR",
        "ACUSE"
      ],
      [
        "U",
        "L"
      ],
      [
        "ĠW",
        "as"
      ],
      [
        "UC",
        "K"
      ],
      [
        "a",
        "w"
      ],
      [
        "Ġs",
        "ight"
      ],
      [
        "ĠM",
        "ore"
      ],
      [
        "m",
        "er"
      ],
      [
        "ĠT",
        "ro"
      ],
      [
        "Ġg",
        "ener"
      ],
      [
        "ro",
        "ss"
      ],
      [
        "Ġsee",
        "k"
      ],
      [
        "Ġdis",
        "t"
      ],
      [
        "Ġdra",
        "w"
      ],
      [
        "IG",
        "H"
      ],
      [
        "Ġc",
        "ry"
      ],
      [
        "IN",
        "D"
      ],
      [
        "gain",
        "st"
      ],
      [
        "Ġserv",
        "ice"
      ],
      [
        "BER",
        "G"
      ],
      [
        "H",
        "INE"
      ],
      [
        "l",
        "et"
      ],
      [
        "Ġl",
        "ate"
      ],
      [
        "Ġto",
        "ld"
      ],
      [
        "ĠC",
        "OR"
      ],
      [
        "Ġli",
        "es"
      ],
      [
        "Ġex",
        "ce"
      ],
      [
        "Ġbea",
        "uty"
      ],
      [
        "r",
        "s"
      ],
      [
        "EN",
        "GER"
      ],
      [
        "Ġcom",
        "fort"
      ],
      [
        "Ġblood",
        "y"
      ],
      [
        "har",
        "d"
      ],
      [
        "P",
        "RO"
      ],
      [
        "Ġa",
        "w"
      ],
      [
        "Ġs",
        "ister"
      ],
      [
        "Ġm",
        "et"
      ],
      [
        "Ġc",
        "a"
      ],
      [
        "Ġwe",
        "ar"
      ],
      [
        "Ġpr",
        "oud"
      ],
      [
        "RO",
        "M"
      ],
      [
        "ond",
        "er"
      ],
      [
        "TE",
        "XT"
      ],
      [
        "ĠAnt",
        "ony"
      ],
      [
        "H",
        "IP"
      ],
      [
        "K",
        "ES"
      ],
      [
        "ĠĠĠĠĠĠĠĠĠĠĠĠĠĠĠĠ",
        "ĠĠ"
      ],
      [
        "Ġre",
        "ven"
      ],
      [
        "Ġde",
        "f"
      ],
      [
        "AR",
        "E"
      ],
      [
        "AR",
        "Y"
      ],
      [
        "ĠMESS",
        "ENGER"
      ],
      [
        "G",
        "ES"
      ],
      [
        "l",
        "s"
      ],
      [
        "Ġs",
        "ame"
      ],
      [
        "ĠĠĠĠĠĠĠĠĠĠĠĠĠĠĠĠĠĠĠĠ",
        "ĠĠ"
      ],
      [
        "Ġdes",
        "ire"
      ],
      [
        "ĠTIM",
        "E"
      ],
      [
        "Ġ",
        "US"
      ],
      [
        "er",
        "v"
      ],
      [
        "Ġg",
        "ave"
      ],
      [
        "Ġre",
        "c"
      ],
      [
        "IGH",
        "T"
      ],
      [
        "C",
        "OM"
      ],
      [
        "I",
        "AL"
      ],
      [
        "en",
        "se"
      ],
      [
        "ĠA",
        "S"
      ],
      [
        "ĠW",
        "OR"
      ],
      [
        "Ġfa",
        "re"
      ],
      [
        "TH",
        "IS"
      ],
      [
        "IC",
        "T"
      ],
      [
        "Ġwor",
        "k"
      ],
      [
        "ĠTH",
        "AT"
      ],
      [
        "li",
        "ke"
      ],
      [
        "for",
        "m"
      ],
      [
        "Ġdou",
        "bt"
      ],
      [
        "ithe",
        "e"
      ],
      [
        "PRO",
        "V"
      ],
      [
        ".",
        ">"
      ],
      [
        "<",
        "<"
      ],
      [
        "D",
        "ISTRIBUT"
      ],
      [
        "H",
        "IB"
      ],
      [
        "J",
        "ECT"
      ],
      [
        "N",
        "LY"
      ],
      [
        "P",
        "ERSON"
      ],
      [
        "R",
        "ARY"
      ],
      [
        "S",
        "HA"
      ],
      [
        "S",
        "ERV"
      ],
      [
        "W",
        "ITH"
      ],
      [
        "Ġ",
        "USE"
      ],
      [
        "Ġ",
        "199"
      ],
      [
        "Ġb",
        "ro"
      ],
      [
        "ĠI",
        "LL"
      ],
      [
        "ĠW",
        "ORK"
      ],
      [
        "ĠS",
        "UCH"
      ],
      [
        "ĠB",
        "EN"
      ],
      [
        "ĠM",
        "EMB"
      ],
      [
        "ĠO",
        "NLY"
      ],
      [
        "ĠP",
        "ERM"
      ],
      [
        "ĠE",
        "TEXT"
      ],
      [
        "ĠL",
        "IB"
      ],
      [
        "ĠG",
        "UTEN"
      ],
      [
        "ĠD",
        "OWN"
      ],
      [
        "ĠN",
        "OT"
      ],
      [
        "ĠY",
        "OUR"
      ],
      [
        "Ġsu",
        "ff"
      ],
      [
        "LL",
        "Y"
      ],
      [
        "LL",
        "EGE"
      ],
      [
        "Ġpr",
        "ison"
      ],
      [
        "IA",
        "LLY"
      ],
      [
        "ĠAN",
        "Y"
      ],
      [
        "ED",
        "ICT"
      ],
      [
        "ĠCO",
        "LLEGE"
      ],
      [
        "ĠV",
        "ERS"
      ],
      [
        "LO",
        "AD"
      ],
      [
        "ERS",
        "HIP"
      ],
      [
        "AD",
        "ABLE"
      ],
      [
        "IT",
        "ED"
      ],
      [
        "ĠPRO",
        "HIB"
      ],
      [
        "ĠPRO",
        "JECT"
      ],
      [
        "ID",
        "ED"
      ],
      [
        "ĠCOP",
        "YR"
      ],
      [
        "ĠCOM",
        "MERC"
      ],
      [
        "ĠCOM",
        "PLE"
      ],
      [
        "ĠMAC",
        "HINE"
      ],
      [
        "PE",
        "ARE"
      ],
      [
        "199",
        "3"
      ],
      [
        "ĠINC",
        "LU"
      ],
      [
        "ĠDISTRIBUT",
        "ED"
      ],
      [
        "ĠDISTRIBUT",
        "ION"
      ],
      [
        "MERC",
        "IALLY"
      ],
      [
        "ĠCHAR",
        "GES"
      ],
      [
        "ISS",
        "ION"
      ],
      [
        "ĠRE",
        "ADABLE"
      ],
      [
        "INO",
        "IS"
      ],
      [
        "KES",
        "PEARE"
      ],
      [
        "ĠUS",
        "ED"
      ],
      [
        "COM",
        "MERCIALLY"
      ],
      [
        "ĠWOR",
        "LD"
      ],
      [
        "PROV",
        "IDED"
      ],
      [
        ".>",
        ">"
      ],
      [
        "DISTRIBUT",
        "ED"
      ],
      [
        "PERSON",
        "AL"
      ],
      [
        "SHA",
        "KESPEARE"
      ],
      [
        "SERV",
        "ICE"
      ],
      [
        "Ġ199",
        "0"
      ],
      [
        "ĠILL",
        "INOIS"
      ],
      [
        "ĠWORK",
        "S"
      ],
      [
        "ĠBEN",
        "EDICT"
      ],
      [
        "ĠMEMB",
        "ERSHIP"
      ],
      [
        "ĠPERM",
        "ISSION"
      ],
      [
        "ĠLIB",
        "RARY"
      ],
      [
        "ĠGUTEN",
        "BERG"
      ],
      [
        "ĠDOWN",
        "LOAD"
      ],
      [
        "ĠVERS",
        "ION"
      ],
      [
        "ĠPROHIB",
        "ITED"
      ],
      [
        "ĠCOPYR",
        "IGHT"
      ],
      [
        "ĠCOMMERC",
        "IAL"
      ],
      [
        "ĠCOMPLE",
        "TE"
      ],
      [
        "ĠINCLU",
        "DES"
      ],
      [
        "ĠBENEDICT",
        "INE"
      ],
      [
        "R",
        "S"
      ],
      [
        "u",
        "p"
      ],
      [
        "Ġpur",
        "pose"
      ],
      [
        "Ġpe",
        "ople"
      ],
      [
        "ĠROSAL",
        "IND"
      ],
      [
        "u",
        "res"
      ],
      [
        "ĠP",
        "o"
      ],
      [
        "ĠĠĠĠĠĠĠĠĠĠĠĠĠĠĠĠ",
        "ĠĠĠĠĠ"
      ],
      [
        "g",
        "s"
      ],
      [
        "Ġf",
        "ield"
      ],
      [
        "Ġo",
        "ath"
      ],
      [
        "Ġc",
        "ra"
      ],
      [
        "ĠT",
        "IT"
      ],
      [
        "ĠM",
        "RS"
      ],
      [
        "ĠFOR",
        "D"
      ],
      [
        "Ġt",
        "end"
      ],
      [
        "Ġb",
        "ri"
      ],
      [
        "Ġse",
        "lf"
      ],
      [
        "Ġhat",
        "e"
      ],
      [
        "Ġs",
        "it"
      ],
      [
        "it",
        "or"
      ],
      [
        "ces",
        "ter"
      ],
      [
        "Ġco",
        "ld"
      ],
      [
        "D",
        "ER"
      ],
      [
        "I",
        "PH"
      ],
      [
        "k",
        "es"
      ],
      [
        "ĠH",
        "igh"
      ],
      [
        "Ġde",
        "p"
      ],
      [
        "i",
        "al"
      ],
      [
        "Ġs",
        "ad"
      ],
      [
        "re",
        "st"
      ],
      [
        "Ġp",
        "ity"
      ],
      [
        "ĠS",
        "ay"
      ],
      [
        "ound",
        "s"
      ],
      [
        "Ġs",
        "il"
      ],
      [
        "Ġqu",
        "ick"
      ],
      [
        "B",
        "ETH"
      ],
      [
        "a",
        "v"
      ],
      [
        "Ġc",
        "ond"
      ],
      [
        "ĠS",
        "w"
      ],
      [
        "ur",
        "se"
      ],
      [
        "ĠPr",
        "ay"
      ],
      [
        "ĠMAC",
        "BETH"
      ],
      [
        "Ġf",
        "it"
      ],
      [
        "Ġl",
        "ear"
      ],
      [
        "ĠP",
        "AR"
      ],
      [
        "ON",
        "T"
      ],
      [
        "Ġfo",
        "ot"
      ],
      [
        "ĠSp",
        "eak"
      ],
      [
        "W",
        "ARD"
      ],
      [
        "Ġa",
        "ff"
      ],
      [
        "Ġw",
        "at"
      ],
      [
        "Ġd",
        "am"
      ],
      [
        "ĠT",
        "ill"
      ],
      [
        "ĠT",
        "ake"
      ],
      [
        "ĠA",
        "G"
      ],
      [
        "oo",
        "se"
      ],
      [
        "ĠF",
        "rench"
      ],
      [
        "Ġso",
        "on"
      ],
      [
        "Ġknow",
        "s"
      ],
      [
        "Ġbes",
        "eech"
      ],
      [
        "Ġt",
        "imes"
      ],
      [
        "Ġa",
        "ir"
      ],
      [
        "ĠB",
        "A"
      ],
      [
        "OL",
        "US"
      ],
      [
        "IPH",
        "OLUS"
      ],
      [
        "ĠJ",
        "O"
      ],
      [
        "ci",
        "us"
      ],
      [
        "Ġcomp",
        "any"
      ],
      [
        "O",
        "LL"
      ],
      [
        "n",
        "s"
      ],
      [
        "Ġw",
        "in"
      ],
      [
        "ĠN",
        "e"
      ],
      [
        "Ġlo",
        "se"
      ],
      [
        "Ġlook",
        "s"
      ],
      [
        "m",
        "ost"
      ],
      [
        "Ġcou",
        "n"
      ],
      [
        "ĠGENTLE",
        "MAN"
      ],
      [
        "b",
        "our"
      ],
      [
        "Ġs",
        "k"
      ],
      [
        "Ġd",
        "are"
      ],
      [
        "Ġfor",
        "g"
      ],
      [
        "ĠL",
        "AD"
      ],
      [
        "Ġcomm",
        "on"
      ],
      [
        "ĠMa",
        "jesty"
      ],
      [
        "E",
        "x"
      ],
      [
        "c",
        "ess"
      ],
      [
        "l",
        "ing"
      ],
      [
        "ĠP",
        "AND"
      ],
      [
        "ĠĠĠĠĠĠĠĠĠĠĠĠĠĠĠĠ",
        "ĠĠĠ"
      ],
      [
        "ĠWe",
        "re"
      ],
      [
        "Ġdre",
        "am"
      ],
      [
        "Ġa",
        "ge"
      ],
      [
        "ĠW",
        "ar"
      ],
      [
        "ĠC",
        "R"
      ],
      [
        "Ġex",
        "p"
      ],
      [
        "Ġday",
        "s"
      ],
      [
        "Ġunc",
        "le"
      ],
      [
        "H",
        "N"
      ],
      [
        "x",
        "t"
      ],
      [
        "Ġt",
        "er"
      ],
      [
        "Ġd",
        "anger"
      ],
      [
        "Ġde",
        "l"
      ],
      [
        "AR",
        "US"
      ],
      [
        "Ġchar",
        "ge"
      ],
      [
        "ĠJO",
        "HN"
      ],
      [
        "u",
        "b"
      ],
      [
        "Ġc",
        "ho"
      ],
      [
        "ar",
        "ry"
      ],
      [
        "Ġin",
        "f"
      ],
      [
        "ĠH",
        "EL"
      ],
      [
        "ĠM",
        "ad"
      ],
      [
        "Ġv",
        "i"
      ],
      [
        "Ġtru",
        "st"
      ],
      [
        "Ġmar",
        "k"
      ],
      [
        "ĠLe",
        "on"
      ],
      [
        "ĠHEL",
        "EN"
      ],
      [
        "Ġd",
        "rink"
      ],
      [
        "Ġser",
        "ve"
      ],
      [
        "Ġs",
        "in"
      ],
      [
        "Ġm",
        "usic"
      ],
      [
        "Ġw",
        "a"
      ],
      [
        "et",
        "er"
      ],
      [
        "Ġu",
        "nd"
      ],
      [
        "Ġlo",
        "ves"
      ],
      [
        "Ġbet",
        "ween"
      ],
      [
        "ment",
        "s"
      ],
      [
        "ĠOn",
        "e"
      ],
      [
        "L",
        "AN"
      ],
      [
        "b",
        "e"
      ],
      [
        "n",
        "ow"
      ],
      [
        "t",
        "he"
      ],
      [
        "ĠP",
        "ro"
      ],
      [
        "ur",
        "d"
      ],
      [
        "ĠK",
        "ent"
      ],
      [
        "ic",
        "es"
      ],
      [
        "Ġpr",
        "ince"
      ],
      [
        "H",
        "E"
      ],
      [
        "v",
        "ent"
      ],
      [
        "ĠĠĠĠ",
        "ĠĠ"
      ],
      [
        "ha",
        "m"
      ],
      [
        "Ġfa",
        "v"
      ],
      [
        "Ġgener",
        "al"
      ],
      [
        "g",
        "g"
      ],
      [
        "i",
        "ble"
      ],
      [
        "t",
        "ed"
      ],
      [
        "ĠM",
        "ost"
      ],
      [
        "Ġe",
        "ach"
      ],
      [
        "Ġas",
        "k"
      ],
      [
        "ĠEd",
        "ward"
      ],
      [
        "ĠC",
        "om"
      ],
      [
        "Ġbel",
        "ieve"
      ],
      [
        "ĠFare",
        "well"
      ],
      [
        "c",
        "ause"
      ],
      [
        "w",
        "ick"
      ],
      [
        "Ġw",
        "ise"
      ],
      [
        "ĠH",
        "a"
      ],
      [
        "Ġgra",
        "ve"
      ],
      [
        "Ġworth",
        "y"
      ],
      [
        "i",
        "ves"
      ],
      [
        "ĠC",
        "IT"
      ],
      [
        "ĠL",
        "ike"
      ],
      [
        "Ġli",
        "ves"
      ],
      [
        "Ġqu",
        "een"
      ],
      [
        "IZ",
        "EN"
      ],
      [
        "ĠHigh",
        "ness"
      ],
      [
        "ĠCIT",
        "IZEN"
      ],
      [
        "re",
        "w"
      ],
      [
        "ĠR",
        "ic"
      ],
      [
        "Ġsu",
        "m"
      ],
      [
        "ING",
        "HAM"
      ],
      [
        "ĠV",
        "AL"
      ],
      [
        "ĠĠĠĠĠĠĠĠĠĠĠĠĠĠĠĠĠĠĠĠ",
        "ĠĠĠ"
      ],
      [
        "Ġgra",
        "cious"
      ],
      [
        "Ġwar",
        "rant"
      ],
      [
        "ROM",
        "IO"
      ],
      [
        "Ġc",
        "ertain"
      ],
      [
        "Ġy",
        "ears"
      ],
      [
        "Ġp",
        "ar"
      ],
      [
        "ut",
        "us"
      ],
      [
        "Ġthy",
        "self"
      ],
      [
        "Ġbr",
        "ought"
      ],
      [
        "Ġmar",
        "ry"
      ],
      [
        "ak",
        "ing"
      ],
      [
        "ELL",
        "A"
      ],
      [
        "ĠMar",
        "ry"
      ],
      [
        "AB",
        "ELLA"
      ],
      [
        "Ġhapp",
        "y"
      ],
      [
        "a",
        "im"
      ],
      [
        "a",
        "ff"
      ],
      [
        "Ġm",
        "oney"
      ],
      [
        "Ġf",
        "urther"
      ],
      [
        "ĠE",
        "N"
      ],
      [
        "Ġknow",
        "n"
      ],
      [
        "f",
        "ord"
      ],
      [
        "g",
        "ue"
      ],
      [
        "Ġb",
        "ir"
      ],
      [
        "Ġy",
        "ield"
      ],
      [
        "ĠT",
        "ell"
      ],
      [
        "ĠL",
        "ady"
      ],
      [
        "ie",
        "f"
      ],
      [
        "Ġho",
        "ly"
      ],
      [
        "Ġwr",
        "it"
      ],
      [
        "ĠWar",
        "wick"
      ],
      [
        "T",
        "A"
      ],
      [
        "t",
        "ing"
      ],
      [
        "Ġm",
        "in"
      ],
      [
        "Ġb",
        "at"
      ],
      [
        "Ġc",
        "ut"
      ],
      [
        "ĠB",
        "O"
      ],
      [
        "Ġcont",
        "ent"
      ],
      [
        "Ġgi",
        "ven"
      ],
      [
        "ĠRic",
        "hard"
      ],
      [
        "ha",
        "l"
      ],
      [
        "Ġb",
        "ar"
      ],
      [
        "Ġb",
        "ound"
      ],
      [
        "er",
        "y"
      ],
      [
        "ĠE",
        "D"
      ],
      [
        "EN",
        "IUS"
      ],
      [
        "Ġother",
        "s"
      ],
      [
        "Ġbra",
        "ve"
      ],
      [
        "ĠMEN",
        "ENIUS"
      ],
      [
        "ĠMad",
        "am"
      ],
      [
        "ĠO",
        "LI"
      ],
      [
        "est",
        "ion"
      ],
      [
        "fe",
        "ction"
      ],
      [
        "ĠBe",
        "fore"
      ],
      [
        "ANT",
        "IPHOLUS"
      ],
      [
        "a",
        "z"
      ],
      [
        "Ġa",
        "c"
      ],
      [
        "er",
        "ve"
      ],
      [
        "Ġhe",
        "ll"
      ],
      [
        "Ġple",
        "asure"
      ],
      [
        "Ġvirt",
        "ue"
      ],
      [
        "P",
        "ER"
      ],
      [
        "g",
        "ar"
      ],
      [
        "Ġp",
        "ast"
      ],
      [
        "Ġde",
        "ep"
      ],
      [
        "ĠY",
        "es"
      ],
      [
        "Ġple",
        "as"
      ],
      [
        "UCH",
        "IO"
      ],
      [
        "Ġpra",
        "ise"
      ],
      [
        "ĠPRIN",
        "CE"
      ],
      [
        "UCK",
        "INGHAM"
      ],
      [
        "ĠED",
        "WARD"
      ],
      [
        "Ġp",
        "ay"
      ],
      [
        "Ġbe",
        "at"
      ],
      [
        "Ġin",
        "c"
      ],
      [
        "ĠB",
        "UCKINGHAM"
      ],
      [
        "IO",
        "LAN"
      ],
      [
        "ĠEng",
        "lish"
      ],
      [
        "ĠBr",
        "utus"
      ],
      [
        "IOLAN",
        "US"
      ],
      [
        "b",
        "s"
      ],
      [
        "ce",
        "ed"
      ],
      [
        "Ġso",
        "vere"
      ],
      [
        "ĠN",
        "OR"
      ],
      [
        "Ġpo",
        "ss"
      ],
      [
        "Ġrep",
        "ort"
      ],
      [
        "ĠANTON",
        "IO"
      ],
      [
        "UFF",
        "OLK"
      ],
      [
        "ĠLAD",
        "Y"
      ],
      [
        "Ġa",
        "ct"
      ],
      [
        "Ġs",
        "ide"
      ],
      [
        "Ġc",
        "or"
      ],
      [
        "ĠA",
        "way"
      ],
      [
        "ow",
        "ard"
      ],
      [
        "ĠP",
        "ETR"
      ],
      [
        "ON",
        "A"
      ],
      [
        "Ġpo",
        "int"
      ],
      [
        "ĠPETR",
        "UCHIO"
      ],
      [
        "s",
        "hip"
      ],
      [
        "Ġw",
        "hile"
      ],
      [
        "Ġd",
        "iv"
      ],
      [
        "ĠS",
        "UFFOLK"
      ],
      [
        "ent",
        "y"
      ],
      [
        "ĠD",
        "e"
      ],
      [
        "Ġsa",
        "ve"
      ],
      [
        "Ġheart",
        "s"
      ],
      [
        "ĠBe",
        "at"
      ],
      [
        "Ġle",
        "ad"
      ],
      [
        "ĠAl",
        "as"
      ],
      [
        "UN",
        "T"
      ],
      [
        "ĠCOR",
        "IOLANUS"
      ],
      [
        "i",
        "ant"
      ],
      [
        "Ġs",
        "ake"
      ],
      [
        "ĠS",
        "ee"
      ],
      [
        "ĠH",
        "ad"
      ],
      [
        "ĠR",
        "os"
      ],
      [
        "Ġkn",
        "ave"
      ],
      [
        "ĠGlou",
        "cester"
      ],
      [
        "Ġt",
        "en"
      ],
      [
        "ĠP",
        "l"
      ],
      [
        "Ġre",
        "qu"
      ],
      [
        "us",
        "h"
      ],
      [
        "Ġj",
        "o"
      ],
      [
        "ĠTIT",
        "US"
      ],
      [
        "Ġb",
        "old"
      ],
      [
        "ll",
        "y"
      ],
      [
        "IN",
        "A"
      ],
      [
        "Ġde",
        "v"
      ],
      [
        "Ġri",
        "ch"
      ],
      [
        "ĠPAND",
        "ARUS"
      ],
      [
        "e",
        "k"
      ],
      [
        "Ġt",
        "ouch"
      ],
      [
        "Ġm",
        "outh"
      ],
      [
        "Ġw",
        "is"
      ],
      [
        "ĠT",
        "OB"
      ],
      [
        "Ġg",
        "all"
      ],
      [
        "ENT",
        "INE"
      ],
      [
        "OWN",
        "E"
      ],
      [
        "Ġpers",
        "on"
      ],
      [
        "ĠTOB",
        "Y"
      ],
      [
        "n",
        "e"
      ],
      [
        "Ġm",
        "ock"
      ],
      [
        "Ġf",
        "our"
      ],
      [
        "ĠW",
        "h"
      ],
      [
        "ĠC",
        "on"
      ],
      [
        "Ġe",
        "at"
      ],
      [
        "oo",
        "f"
      ],
      [
        "ES",
        "AR"
      ],
      [
        "Ġkn",
        "ight"
      ],
      [
        "ĠCA",
        "ESAR"
      ],
      [
        "ĠHELEN",
        "A"
      ],
      [
        "n",
        "ed"
      ],
      [
        "Ġ",
        "est"
      ],
      [
        "Ġm",
        "orn"
      ],
      [
        "Ġc",
        "ol"
      ],
      [
        "ot",
        "s"
      ],
      [
        "Ġsu",
        "it"
      ],
      [
        "Ġsold",
        "iers"
      ],
      [
        "Ġgr",
        "ound"
      ],
      [
        "D",
        "EM"
      ],
      [
        "Ġs",
        "ur"
      ],
      [
        "Ġs",
        "ign"
      ],
      [
        "an",
        "c"
      ],
      [
        "ĠD",
        "ES"
      ],
      [
        "Ġlo",
        "v"
      ],
      [
        "ie",
        "ce"
      ],
      [
        "Ġpro",
        "f"
      ],
      [
        "Ġconf",
        "ess"
      ],
      [
        "ĠBER",
        "OWNE"
      ],
      [
        "ĠVAL",
        "ENTINE"
      ],
      [
        "DEM",
        "ONA"
      ],
      [
        "ĠDES",
        "DEMONA"
      ],
      [
        "D",
        "ROMIO"
      ],
      [
        "n",
        "o"
      ],
      [
        "ĠC",
        "h"
      ],
      [
        "ĠTh",
        "us"
      ],
      [
        "Ġhea",
        "vy"
      ],
      [
        "ESS",
        "ID"
      ],
      [
        "Ġenem",
        "y"
      ],
      [
        "ĠCR",
        "ESSID"
      ],
      [
        "ĠCRESSID",
        "A"
      ],
      [
        "es",
        "h"
      ],
      [
        "ĠA",
        "h"
      ],
      [
        "ĠS",
        "HA"
      ],
      [
        "Ġbl",
        "ack"
      ],
      [
        "ink",
        "s"
      ],
      [
        "Ġson",
        "s"
      ],
      [
        "Ġtend",
        "er"
      ],
      [
        "Ġg",
        "ar"
      ],
      [
        "am",
        "p"
      ],
      [
        "Ġmer",
        "ry"
      ],
      [
        "Ġmer",
        "cy"
      ],
      [
        "!",
        "'"
      ],
      [
        "I",
        "ER"
      ],
      [
        "S",
        "C"
      ],
      [
        "ĠM",
        "ake"
      ],
      [
        "ed",
        "i"
      ],
      [
        "hi",
        "l"
      ],
      [
        "LL",
        "OW"
      ],
      [
        "Ġgo",
        "es"
      ],
      [
        "ĠPRO",
        "TE"
      ],
      [
        "Ġsub",
        "ject"
      ],
      [
        "ĠPAR",
        "OLL"
      ],
      [
        "ĠSHA",
        "LLOW"
      ],
      [
        "ĠPROTE",
        "US"
      ],
      [
        "ĠPAROLL",
        "ES"
      ],
      [
        "i",
        "or"
      ],
      [
        "Ġw",
        "oo"
      ],
      [
        "Ġh",
        "ot"
      ],
      [
        "ĠH",
        "or"
      ],
      [
        "al",
        "t"
      ],
      [
        "Ġkn",
        "ew"
      ],
      [
        "Ġwom",
        "en"
      ],
      [
        "Ġfare",
        "well"
      ],
      [
        "Ġw",
        "atch"
      ],
      [
        "Ġb",
        "os"
      ],
      [
        "ĠT",
        "RO"
      ],
      [
        "ri",
        "es"
      ],
      [
        "Ġr",
        "ing"
      ],
      [
        "ĠS",
        "c"
      ],
      [
        "ES",
        "US"
      ],
      [
        "Ġv",
        "is"
      ],
      [
        "Ġbl",
        "ess"
      ],
      [
        "PH",
        "ESUS"
      ],
      [
        "IL",
        "US"
      ],
      [
        "Ġpati",
        "ence"
      ],
      [
        "ĠTRO",
        "ILUS"
      ],
      [
        "i",
        "res"
      ],
      [
        "s",
        "ue"
      ],
      [
        "ĠS",
        "OL"
      ],
      [
        "ĠS",
        "ince"
      ],
      [
        "ER",
        "D"
      ],
      [
        "Ġfa",
        "st"
      ],
      [
        "Ġne",
        "xt"
      ],
      [
        "IR",
        "D"
      ],
      [
        "ĠTH",
        "IRD"
      ],
      [
        "Y",
        "M"
      ],
      [
        "Ġd",
        "ro"
      ],
      [
        "Ġp",
        "en"
      ],
      [
        "ĠP",
        "ed"
      ],
      [
        "our",
        "ish"
      ],
      [
        "AN",
        "CE"
      ],
      [
        "Ġsh",
        "ort"
      ],
      [
        "Ġthem",
        "selves"
      ],
      [
        "Ġqu",
        "ar"
      ],
      [
        "C",
        "US"
      ],
      [
        "c",
        "om"
      ],
      [
        "u",
        "ff"
      ],
      [
        "re",
        "m"
      ],
      [
        "Ġb",
        "urn"
      ],
      [
        "Ġc",
        "ast"
      ],
      [
        "ĠO",
        "ut"
      ],
      [
        "Ġsp",
        "eed"
      ],
      [
        "all",
        "y"
      ],
      [
        "Ġcour",
        "se"
      ],
      [
        "ĠLUC",
        "IUS"
      ],
      [
        "Ġbos",
        "om"
      ],
      [
        ".",
        "-"
      ],
      [
        "r",
        "ay"
      ],
      [
        "Ġto",
        "wn"
      ],
      [
        "at",
        "ed"
      ],
      [
        "ĠP",
        "er"
      ],
      [
        "ĠD",
        "es"
      ],
      [
        "Ġdes",
        "p"
      ],
      [
        "Ġchan",
        "ge"
      ],
      [
        "Ġvo",
        "ice"
      ],
      [
        "p",
        "l"
      ],
      [
        "Ġl",
        "ad"
      ],
      [
        "ĠA",
        "L"
      ],
      [
        "ve",
        "l"
      ],
      [
        "as",
        "k"
      ],
      [
        "th",
        "ing"
      ],
      [
        "Ġear",
        "s"
      ],
      [
        "Ġop",
        "en"
      ],
      [
        "ĠPed",
        "ro"
      ],
      [
        "u",
        "ous"
      ],
      [
        "Ġ",
        "ord"
      ],
      [
        "Ġb",
        "ase"
      ],
      [
        "st",
        "and"
      ],
      [
        "ĠB",
        "en"
      ],
      [
        "ir",
        "m"
      ],
      [
        "ĠE",
        "PHESUS"
      ],
      [
        "Ġne",
        "ither"
      ],
      [
        "Ġqu",
        "estion"
      ],
      [
        "Ġpro",
        "p"
      ],
      [
        "ĠIS",
        "ABELLA"
      ],
      [
        "Ġent",
        "er"
      ],
      [
        "Ġbe",
        "hold"
      ],
      [
        "Ġha",
        "ir"
      ],
      [
        "ĠC",
        "ap"
      ],
      [
        "ĠP",
        "ORT"
      ],
      [
        "Ġtru",
        "mp"
      ],
      [
        "Ġtoo",
        "k"
      ],
      [
        "Ġapp",
        "ear"
      ],
      [
        "Ġent",
        "reat"
      ],
      [
        "Ġgu",
        "ard"
      ],
      [
        "ĠSh",
        "ould"
      ],
      [
        "Ġstra",
        "ight"
      ],
      [
        "ĠPORT",
        "IA"
      ],
      [
        "!",
        "-"
      ],
      [
        "Ġw",
        "all"
      ],
      [
        "Ġth",
        "ri"
      ],
      [
        "Ġto",
        "ward"
      ],
      [
        "ot",
        "e"
      ],
      [
        "Ġdo",
        "g"
      ],
      [
        "ge",
        "l"
      ],
      [
        "Ġgentle",
        "men"
      ],
      [
        "eth",
        "inks"
      ],
      [
        "ĠRome",
        "o"
      ],
      [
        "ix",
        "t"
      ],
      [
        "Ġban",
        "ish"
      ],
      [
        "Ġremem",
        "ber"
      ],
      [
        "Ġsovere",
        "ign"
      ],
      [
        "e",
        "c"
      ],
      [
        "g",
        "es"
      ],
      [
        "Ġ",
        "1"
      ],
      [
        "re",
        "ady"
      ],
      [
        "Ġwe",
        "ak"
      ],
      [
        "Ġwor",
        "se"
      ],
      [
        "Ġpl",
        "ain"
      ],
      [
        "Ġex",
        "t"
      ],
      [
        "Ġsomet",
        "hing"
      ],
      [
        "Ġpal",
        "ace"
      ],
      [
        "Ġcoun",
        "sel"
      ],
      [
        "Ġt",
        "a"
      ],
      [
        "Ġd",
        "uty"
      ],
      [
        "ĠH",
        "OST"
      ],
      [
        "ra",
        "h"
      ],
      [
        "ĠHe",
        "ctor"
      ],
      [
        "Ġpro",
        "v"
      ],
      [
        "B",
        "UR"
      ],
      [
        "Ġw",
        "alk"
      ],
      [
        "Ġf",
        "eel"
      ],
      [
        "EN",
        "CE"
      ],
      [
        "ast",
        "e"
      ],
      [
        "Ġex",
        "c"
      ],
      [
        "Ġhast",
        "e"
      ],
      [
        "Ġsold",
        "ier"
      ],
      [
        "Ġval",
        "iant"
      ],
      [
        "Ġwat",
        "er"
      ],
      [
        "E",
        "B"
      ],
      [
        "Ġf",
        "e"
      ],
      [
        "at",
        "is"
      ],
      [
        "AN",
        "S"
      ],
      [
        ",",
        "'"
      ],
      [
        "b",
        "ly"
      ],
      [
        "c",
        "ha"
      ],
      [
        "he",
        "d"
      ],
      [
        "Ġw",
        "ret"
      ],
      [
        "ĠT",
        "R"
      ],
      [
        "ĠM",
        "ust"
      ],
      [
        "Ġde",
        "li"
      ],
      [
        "Ġcan",
        "st"
      ],
      [
        "ort",
        "al"
      ],
      [
        "ag",
        "ue"
      ],
      [
        "Ġapp",
        "ro"
      ],
      [
        "Ġserv",
        "ant"
      ],
      [
        "ĠSw",
        "eet"
      ],
      [
        "on",
        "es"
      ],
      [
        "ĠM",
        "istress"
      ],
      [
        "IL",
        "IA"
      ],
      [
        "O",
        "TH"
      ],
      [
        "Ġe",
        "mb"
      ],
      [
        "ĠP",
        "ol"
      ],
      [
        "Ġdo",
        "or"
      ],
      [
        "RO",
        "KE"
      ],
      [
        "Ġdid",
        "st"
      ],
      [
        "ĠEd",
        "m"
      ],
      [
        "ĠII",
        "I"
      ],
      [
        "B",
        "US"
      ],
      [
        "Ġw",
        "oe"
      ],
      [
        "Ġc",
        "oward"
      ],
      [
        "ĠT",
        "ru"
      ],
      [
        "ĠP",
        "ar"
      ],
      [
        "ĠThe",
        "ir"
      ],
      [
        "Ġtw",
        "enty"
      ],
      [
        "Ġlie",
        "ge"
      ],
      [
        "Ġtra",
        "itor"
      ],
      [
        "o",
        "f"
      ],
      [
        "Ġb",
        "ad"
      ],
      [
        "ĠS",
        "IC"
      ],
      [
        "AR",
        "BUS"
      ],
      [
        "Ġcom",
        "ing"
      ],
      [
        "Ġmar",
        "ried"
      ],
      [
        "IST",
        "OL"
      ],
      [
        "ull",
        "y"
      ],
      [
        "Ġpre",
        "t"
      ],
      [
        "b",
        "b"
      ],
      [
        "Ġw",
        "onder"
      ],
      [
        "Ġo",
        "pp"
      ],
      [
        "it",
        "ies"
      ],
      [
        "Ġof",
        "t"
      ],
      [
        "Ġnot",
        "e"
      ],
      [
        "ĠP",
        "eace"
      ],
      [
        "au",
        "ght"
      ],
      [
        "Ġneed",
        "s"
      ],
      [
        "Ġjust",
        "ice"
      ],
      [
        "ĠCass",
        "io"
      ],
      [
        "r",
        "ous"
      ],
      [
        "ĠS",
        "EN"
      ],
      [
        "ĠE",
        "m"
      ],
      [
        "Ġu",
        "nt"
      ],
      [
        "ri",
        "age"
      ],
      [
        "end",
        "s"
      ],
      [
        "pt",
        "ain"
      ],
      [
        "ĠSt",
        "and"
      ],
      [
        "Ġgl",
        "ad"
      ],
      [
        "ĠSu",
        "ch"
      ],
      [
        "Ex",
        "it"
      ],
      [
        "G",
        "EN"
      ],
      [
        "M",
        "O"
      ],
      [
        "m",
        "ber"
      ],
      [
        "ĠI",
        "MO"
      ],
      [
        "Ġc",
        "ity"
      ],
      [
        "Ġc",
        "ap"
      ],
      [
        "ĠP",
        "ISTOL"
      ],
      [
        "Ġsp",
        "eech"
      ],
      [
        "fe",
        "it"
      ],
      [
        "Ġfl",
        "esh"
      ],
      [
        "OB",
        "ARBUS"
      ],
      [
        "ĠEN",
        "OBARBUS"
      ],
      [
        "BUR",
        "Y"
      ],
      [
        "ĠIMO",
        "GEN"
      ],
      [
        "Ġc",
        "le"
      ],
      [
        "ĠS",
        "IL"
      ],
      [
        "ĠF",
        "ri"
      ],
      [
        "row",
        "s"
      ],
      [
        "Ġhar",
        "m"
      ],
      [
        "ĠLE",
        "ONT"
      ],
      [
        "ĠCASS",
        "IUS"
      ],
      [
        "Ġreven",
        "ge"
      ],
      [
        "ĠLEONT",
        "ES"
      ],
      [
        "c",
        "her"
      ],
      [
        "f",
        "ter"
      ],
      [
        "o",
        "ver"
      ],
      [
        "Ġc",
        "r"
      ],
      [
        "Ġl",
        "ack"
      ],
      [
        "ĠA",
        "gainst"
      ],
      [
        "ĠS",
        "AL"
      ],
      [
        "ce",
        "pt"
      ],
      [
        "ĠM",
        "AL"
      ],
      [
        "ea",
        "ch"
      ],
      [
        "Ġsp",
        "ort"
      ],
      [
        "ĠV",
        "IO"
      ],
      [
        "Ġal",
        "most"
      ],
      [
        "Ġal",
        "ready"
      ],
      [
        "ĠOR",
        "LAND"
      ],
      [
        "Ġstre",
        "ng"
      ],
      [
        "ĠKATH",
        "ER"
      ],
      [
        "ĠORLAND",
        "O"
      ],
      [
        "c",
        "ent"
      ],
      [
        "h",
        "ood"
      ],
      [
        "i",
        "p"
      ],
      [
        "in",
        "es"
      ],
      [
        "en",
        "ess"
      ],
      [
        "Ġh",
        "ur"
      ],
      [
        "ĠB",
        "ene"
      ],
      [
        "ĠL",
        "ove"
      ],
      [
        "ea",
        "st"
      ],
      [
        "um",
        "ber"
      ],
      [
        "ond",
        "on"
      ],
      [
        "Ġsc",
        "orn"
      ],
      [
        "dd",
        "en"
      ],
      [
        "Ġspo",
        "ke"
      ],
      [
        "Ġsuff",
        "er"
      ],
      [
        "ĠBO",
        "Y"
      ],
      [
        "ĠVIO",
        "LA"
      ],
      [
        "a",
        "id"
      ],
      [
        "Ġa",
        "ction"
      ],
      [
        "Ġd",
        "u"
      ],
      [
        "on",
        "a"
      ],
      [
        "Ġg",
        "ro"
      ],
      [
        "ĠF",
        "l"
      ],
      [
        "ck",
        "s"
      ],
      [
        "Ġpr",
        "ithee"
      ],
      [
        "GE",
        "LO"
      ],
      [
        "Ġwit",
        "hal"
      ],
      [
        "Ġpresent",
        "ly"
      ],
      [
        "Ġa",
        "g"
      ],
      [
        "Ġm",
        "ove"
      ],
      [
        "as",
        "c"
      ],
      [
        "ol",
        "k"
      ],
      [
        "Ġhour",
        "s"
      ],
      [
        "Ġres",
        "pect"
      ],
      [
        "Ġfav",
        "our"
      ],
      [
        "ĠSIC",
        "INIUS"
      ],
      [
        "p",
        "r"
      ],
      [
        "Ġf",
        "ra"
      ],
      [
        "Ġc",
        "reat"
      ],
      [
        "Ġg",
        "rant"
      ],
      [
        "Ġli",
        "ps"
      ],
      [
        "am",
        "ent"
      ],
      [
        "Ġpl",
        "uck"
      ],
      [
        "Ġoff",
        "end"
      ],
      [
        "Ġcl",
        "ose"
      ],
      [
        "F",
        "E"
      ],
      [
        "v",
        "ol"
      ],
      [
        "Ġd",
        "ark"
      ],
      [
        "Ġl",
        "augh"
      ],
      [
        "Ġp",
        "ow"
      ],
      [
        "ĠC",
        "or"
      ],
      [
        "Ġwar",
        "s"
      ],
      [
        "che",
        "d"
      ],
      [
        "Ġstand",
        "s"
      ],
      [
        "Q",
        "U"
      ],
      [
        "S",
        "PER"
      ],
      [
        "Ġb",
        "ook"
      ],
      [
        "Ġb",
        "ond"
      ],
      [
        "ĠM",
        "er"
      ],
      [
        "Ġfor",
        "b"
      ],
      [
        "Ġsc",
        "ar"
      ],
      [
        "Ġpre",
        "p"
      ],
      [
        "ĠClaud",
        "io"
      ],
      [
        "ĠOLI",
        "VIA"
      ],
      [
        "SPER",
        "O"
      ],
      [
        "G",
        "AR"
      ],
      [
        "b",
        "it"
      ],
      [
        "b",
        "ert"
      ],
      [
        "u",
        "ght"
      ],
      [
        "Ġl",
        "ow"
      ],
      [
        "Ġbe",
        "come"
      ],
      [
        "ĠC",
        "all"
      ],
      [
        "Ġst",
        "ir"
      ],
      [
        "Ġre",
        "d"
      ],
      [
        "Ġsw",
        "orn"
      ],
      [
        "ĠPRO",
        "SPERO"
      ],
      [
        "ĠSOL",
        "D"
      ],
      [
        "T",
        "EN"
      ],
      [
        "r",
        "ist"
      ],
      [
        "s",
        "es"
      ],
      [
        "ĠA",
        "U"
      ],
      [
        "Ġhe",
        "ir"
      ],
      [
        "as",
        "hi"
      ],
      [
        "al",
        "m"
      ],
      [
        "ĠY",
        "ea"
      ],
      [
        "Ġlo",
        "ss"
      ],
      [
        "Ġcon",
        "st"
      ],
      [
        "um",
        "b"
      ],
      [
        "Ġad",
        "d"
      ],
      [
        "ĠĠĠĠĠĠĠĠĠĠĠĠĠĠĠĠĠĠĠĠĠĠĠĠ",
        "ĠĠĠ"
      ],
      [
        "ĠMAR",
        "GAR"
      ],
      [
        "Ġmo",
        "on"
      ],
      [
        "Ġden",
        "y"
      ],
      [
        "Ġmorn",
        "ing"
      ],
      [
        "re",
        "l"
      ],
      [
        "it",
        "es"
      ],
      [
        "Ġh",
        "ide"
      ],
      [
        "Ġin",
        "ter"
      ],
      [
        "ĠB",
        "AST"
      ],
      [
        "Ġtr",
        "ou"
      ],
      [
        "Ġwh",
        "ite"
      ],
      [
        "aint",
        "ed"
      ],
      [
        "Ġgri",
        "e"
      ],
      [
        "UN",
        "CE"
      ],
      [
        "ĠLA",
        "UNCE"
      ],
      [
        "ĠTro",
        "y"
      ],
      [
        "Ġstreng",
        "th"
      ],
      [
        "ĠBAST",
        "ARD"
      ],
      [
        "Ġm",
        "ot"
      ],
      [
        "Ġm",
        "od"
      ],
      [
        "re",
        "r"
      ],
      [
        "Ġp",
        "u"
      ],
      [
        "Ġbe",
        "ast"
      ],
      [
        "et",
        "ch"
      ],
      [
        "oo",
        "p"
      ],
      [
        "Ġv",
        "ile"
      ],
      [
        "Ġoff",
        "ice"
      ],
      [
        "Ġheaven",
        "s"
      ],
      [
        "Ġdeli",
        "ver"
      ],
      [
        "Ġj",
        "est"
      ],
      [
        "ci",
        "ence"
      ],
      [
        "Ġsl",
        "ave"
      ],
      [
        "Ġexce",
        "ll"
      ],
      [
        "n",
        "k"
      ],
      [
        "Ġ",
        "id"
      ],
      [
        "Ġw",
        "ild"
      ],
      [
        "is",
        "ed"
      ],
      [
        "Ġf",
        "east"
      ],
      [
        "Ġp",
        "ale"
      ],
      [
        "ĠS",
        "PE"
      ],
      [
        "ĠC",
        "L"
      ],
      [
        "ĠL",
        "a"
      ],
      [
        "Ġsu",
        "dden"
      ],
      [
        "TR",
        "AM"
      ],
      [
        "Ġbat",
        "tle"
      ],
      [
        "ĠA",
        "d"
      ],
      [
        "Ġp",
        "ap"
      ],
      [
        "Ġfor",
        "m"
      ],
      [
        "Ġre",
        "ady"
      ],
      [
        "em",
        "pt"
      ],
      [
        "Ġspeak",
        "s"
      ],
      [
        "Ġsl",
        "ain"
      ],
      [
        "ĠBER",
        "TRAM"
      ],
      [
        "Ġjud",
        "g"
      ],
      [
        "ĠMARGAR",
        "ET"
      ],
      [
        "ĠSPE",
        "ED"
      ],
      [
        "Ġs",
        "ense"
      ],
      [
        "ĠB",
        "l"
      ],
      [
        "Ġre",
        "g"
      ],
      [
        "Ġthan",
        "ks"
      ],
      [
        "Ġtru",
        "ly"
      ],
      [
        "Ġking",
        "dom"
      ],
      [
        "Ġletter",
        "s"
      ],
      [
        "m",
        "it"
      ],
      [
        "Ġm",
        "ess"
      ],
      [
        "Ġd",
        "ire"
      ],
      [
        "ĠB",
        "ARD"
      ],
      [
        "ĠC",
        "EL"
      ],
      [
        "ir",
        "d"
      ],
      [
        "Ġe",
        "m"
      ],
      [
        "ĠD",
        "oth"
      ],
      [
        "OL",
        "PH"
      ],
      [
        "os",
        "s"
      ],
      [
        "ĠRe",
        "g"
      ],
      [
        "we",
        "re"
      ],
      [
        "Ġlords",
        "hip"
      ],
      [
        "ĠHer",
        "o"
      ],
      [
        "ĠBARD",
        "OLPH"
      ],
      [
        "ĠCEL",
        "IA"
      ],
      [
        "e",
        "ep"
      ],
      [
        "t",
        "o"
      ],
      [
        "Ġt",
        "y"
      ],
      [
        "Ġf",
        "ashi"
      ],
      [
        "ce",
        "iv"
      ],
      [
        "ĠH",
        "ear"
      ],
      [
        "ut",
        "ion"
      ],
      [
        "ĠP",
        "OM"
      ],
      [
        "ro",
        "ke"
      ],
      [
        "ak",
        "en"
      ],
      [
        "Ġdis",
        "g"
      ],
      [
        "Ġab",
        "s"
      ],
      [
        "Ġab",
        "ove"
      ],
      [
        "Ġunder",
        "stand"
      ],
      [
        "e",
        "em"
      ],
      [
        "Ġm",
        "al"
      ],
      [
        "Ġm",
        "ount"
      ],
      [
        "ĠI",
        "V"
      ],
      [
        "Ġf",
        "at"
      ],
      [
        "Ġd",
        "ish"
      ],
      [
        "Ġp",
        "it"
      ],
      [
        "Ġha",
        "ving"
      ],
      [
        "as",
        "h"
      ],
      [
        "Ġse",
        "ver"
      ],
      [
        "ĠJ",
        "UL"
      ],
      [
        "ENT",
        "IO"
      ],
      [
        "Ġpri",
        "v"
      ],
      [
        "h",
        "ind"
      ],
      [
        "p",
        "es"
      ],
      [
        "Ġf",
        "am"
      ],
      [
        "Ġd",
        "in"
      ],
      [
        "ĠS",
        "EB"
      ],
      [
        "Ġan",
        "g"
      ],
      [
        "ĠCO",
        "UNT"
      ],
      [
        "Ġcha",
        "mber"
      ],
      [
        "Ġbeg",
        "in"
      ],
      [
        "AST",
        "IAN"
      ],
      [
        "ĠPOM",
        "PE"
      ],
      [
        "ĠSEB",
        "ASTIAN"
      ],
      [
        "B",
        "Y"
      ],
      [
        "c",
        "ri"
      ],
      [
        "l",
        "er"
      ],
      [
        "r",
        "on"
      ],
      [
        "Ġc",
        "ase"
      ],
      [
        "Ġh",
        "u"
      ],
      [
        "Ġg",
        "ot"
      ],
      [
        "ĠM",
        "ac"
      ],
      [
        "Ġfor",
        "ce"
      ],
      [
        "Ġli",
        "ving"
      ],
      [
        "ĠN",
        "urse"
      ],
      [
        "Ġwho",
        "le"
      ],
      [
        "Ġfl",
        "ow"
      ],
      [
        "Ġra",
        "ge"
      ],
      [
        "Ġwit",
        "ness"
      ],
      [
        "AT",
        "OR"
      ],
      [
        "ĠĠĠĠĠĠĠĠĠĠĠĠĠĠĠĠĠĠĠĠĠĠĠĠ",
        "ĠĠ"
      ],
      [
        "Ġcons",
        "cience"
      ],
      [
        "Ġspir",
        "its"
      ],
      [
        "Ġchild",
        "ren"
      ],
      [
        "Ġinst",
        "ru"
      ],
      [
        "ĠBA",
        "SS"
      ],
      [
        "ĠSOLD",
        "IER"
      ],
      [
        "ĠJUL",
        "IA"
      ],
      [
        "ĠPOMPE",
        "Y"
      ],
      [
        "f",
        "fect"
      ],
      [
        "Ġs",
        "igh"
      ],
      [
        "Ġb",
        "it"
      ],
      [
        "ar",
        "um"
      ],
      [
        "Ġof",
        "ten"
      ],
      [
        "ĠD",
        "UCH"
      ],
      [
        "tun",
        "e"
      ],
      [
        "Ġdeed",
        "s"
      ],
      [
        "atis",
        "f"
      ],
      [
        "ĠDUCH",
        "ESS"
      ],
      [
        "m",
        "and"
      ],
      [
        "Ġ",
        "ve"
      ],
      [
        "Ġf",
        "ing"
      ],
      [
        "ĠS",
        "ign"
      ],
      [
        "ĠE",
        "M"
      ],
      [
        "al",
        "s"
      ],
      [
        "Ġst",
        "eal"
      ],
      [
        "ĠD",
        "EM"
      ],
      [
        "Ġlo",
        "ving"
      ],
      [
        "ast",
        "ers"
      ],
      [
        "ant",
        "age"
      ],
      [
        "Ġmar",
        "riage"
      ],
      [
        "ĠLUC",
        "IO"
      ],
      [
        "ETR",
        "IUS"
      ],
      [
        "und",
        "red"
      ],
      [
        "ĠDEM",
        "ETRIUS"
      ],
      [
        "Ġm",
        "ortal"
      ],
      [
        "re",
        "y"
      ],
      [
        "ĠC",
        "ount"
      ],
      [
        "ĠM",
        "o"
      ],
      [
        "Ġst",
        "ru"
      ],
      [
        "Ġre",
        "b"
      ],
      [
        "Ġso",
        "ft"
      ],
      [
        "ĠCA",
        "M"
      ],
      [
        "Ġpass",
        "ion"
      ],
      [
        "Ġstri",
        "ke"
      ],
      [
        "w",
        "ith"
      ],
      [
        "Ġt",
        "it"
      ],
      [
        "Ġl",
        "im"
      ],
      [
        "en",
        "ch"
      ],
      [
        "ĠA",
        "P"
      ],
      [
        "Ġbe",
        "ard"
      ],
      [
        "Ġe",
        "ither"
      ],
      [
        "Ġre",
        "l"
      ],
      [
        "ĠBe",
        "ing"
      ],
      [
        "ĠAR",
        "M"
      ],
      [
        "ĠFR",
        "ANCE"
      ],
      [
        "hil",
        "st"
      ],
      [
        "Ġs",
        "im"
      ],
      [
        "Ġm",
        "orrow"
      ],
      [
        "Ġw",
        "ound"
      ],
      [
        "Ġf",
        "ive"
      ],
      [
        "Ġh",
        "undred"
      ],
      [
        "Ġe",
        "as"
      ],
      [
        "ĠD",
        "is"
      ],
      [
        "ation",
        "s"
      ],
      [
        "Ġdre",
        "ad"
      ],
      [
        "ĠPRIN",
        "C"
      ],
      [
        "Ġlear",
        "n"
      ],
      [
        "ĠCh",
[...]
